<pad>	0
<unk>	0
<bos>	0
<eos>	0
er	-0
en	-1
ch	-2
in	-3
▁a	-4
▁s	-5
▁d	-6
▁t	-7
▁w	-8
▁h	-9
nd	-10
ie	-11
▁th	-12
te	-13
es	-14
ich	-15
▁m	-16
it	-17
▁b	-18
▁the	-19
on	-20
is	-21
re	-22
ein	-23
▁n	-24
▁u	-25
an	-26
as	-27
ar	-28
▁g	-29
▁f	-30
at	-31
ou	-32
ll	-33
or	-34
ed	-35
▁o	-36
ing	-37
▁in	-38
▁l	-39
▁S	-40
▁and	-41
▁und	-42
el	-43
▁to	-44
▁v	-45
ig	-46
▁i	-47
▁die	-48
▁c	-49
st	-50
▁of	-51
▁ein	-52
▁z	-53
▁A	-54
le	-55
▁p	-56
em	-57
▁I	-58
▁be	-59
om	-60
▁ha	-61
▁er	-62
he	-63
ur	-64
un	-65
et	-66
hr	-67
▁der	-68
ter	-69
ck	-70
au	-71
ir	-72
▁k	-73
▁zu	-74
ten	-75
▁T	-76
▁he	-77
id	-78
▁G	-79
al	-80
▁au	-81
▁no	-82
▁H	-83
gen	-84
im	-85
icht	-86
▁M	-87
▁B	-88
ach	-89
▁sa	-90
▁»	-91
▁wh	-92
▁an	-93
▁was	-94
ro	-95
ber	-96
▁K	-97
▁W	-98
▁E	-99
▁so	-100
▁her	-101
ge	-102
▁sie	-103
▁e	-104
▁da	-105
ld	-106
ent	-107
▁D	-108
and	-109
ut	-110
lich	-111
▁den	-112
am	-113
se	-114
▁L	-115
▁y	-116
sch	-117
▁that	-118
▁F	-119
▁nicht	-120
▁on	-121
ow	-122
▁it	-123
▁sich	-124
ce	-125
▁is	-126
▁war	-127
▁st	-128
ere	-129
▁ih	-130
▁ver	-131
▁re	-132
ad	-133
ly	-134
ith	-135
▁his	-136
▁you	-137
th	-138
▁ge	-139
ben	-140
ei	-141
ve	-142
▁ich	-143
▁"	-144
▁sein	-145
ra	-146
▁sch	-147
▁with	-148
▁das	-149
ess	-150
▁mit	-151
▁auf	-152
ung	-153
▁j	-154
▁al	-155
▁all	-156
ion	-157
▁for	-158
end	-159
▁un	-160
ür	-161
ver	-162
▁P	-163
▁r	-164
ann	-165
ke	-166
▁se	-167
▁had	-168
▁as	-169
▁hat	-170
der	-171
▁not	-172
ill	-173
▁'	-174
▁wie	-175
▁es	-176
▁V	-177
ht	-178
de	-179
▁daß	-180
▁him	-181
▁R	-182
▁me	-183
▁von	-184
▁at	-185
oo	-186
▁she	-187
ne	-188
us	-189
den	-190
▁dem	-191
il	-192
all	-193
ould	-194
be	-195
▁Sch	-196
gte	-197
ted	-198
chen	-199
▁ihr	-200
hen	-201
▁im	-202
▁Sie	-203
▁do	-204
▁N	-205
out	-206
ind	-207
est	-208
▁fr	-209
pp	-210
▁Z	-211
▁ist	-212
ol	-213
ay	-214
um	-215
oll	-216
uch	-217
sen	-218
ft	-219
▁hatte	-220
▁ne	-221
▁des	-222
ain	-223
ff	-224
men	-225
ers	-226
▁als	-227
▁eine	-228
nen	-229
ct	-230
über	-231
os	-232
hl	-233
li	-234
▁U	-235
▁St	-236
▁le	-237
mer	-238
▁sp	-239
▁we	-240
▁said	-241
ag	-242
▁sh	-243
▁ab	-244
.«	-245
sel	-246
ab	-247
und	-248
▁Er	-249
▁aus	-250
▁but	-251
qu	-252
etz	-253
ern	-254
▁man	-255
ier	-256
ot	-257
▁J	-258
▁An	-259
oug	-260
ore	-261
ul	-262
ic	-263
igen	-264
▁have	-265
che	-266
▁The	-267
▁aber	-268
ust	-269
▁vor	-270
ück	-271
▁C	-272
▁li	-273
."	-274
ome	-275
▁über	-276
ight	-277
ons	-278
▁ihm	-279
▁Le	-280
ant	-281
itt	-282
▁–	-283
ort	-284
--	-285
▁which	-286
..	-287
▁um	-288
▁my	-289
ri	-290
anz	-291
▁mein	-292
her	-293
we	-294
▁O	-295
enn	-296
▁de	-297
▁ch	-298
ang	-299
op	-300
rie	-301
▁dies	-302
urch	-303
▁noch	-304
la	-305
ard	-306
▁sagte	-307
uß	-308
▁ihn	-309
▁nach	-310
▁He	-311
▁hin	-312
▁from	-313
▁ex	-314
fe	-315
our	-316
ast	-317
ien	-318
ther	-319
hn	-320
▁für	-321
▁Au	-322
ist	-323
▁by	-324
ken	-325
ew	-326
▁one	-327
me	-328
▁who	-329
▁mich	-330
▁up	-331
!«	-332
▁mir	-333
▁einen	-334
ell	-335
▁this	-336
iel	-337
▁nur	-338
ru	-339
ous	-340
▁they	-341
▁wir	-342
▁will	-343
rau	-344
ön	-345
▁con	-346
▁Th	-347
lo	-348
zu	-349
▁am	-350
▁were	-351
ation	-352
▁ar	-353
na	-354
?«	-355
▁would	-356
▁du	-357
▁gew	-358
aus	-359
▁ges	-360
▁Ges	-361
▁auch	-362
lick	-363
fen	-364
▁or	-365
self	-366
▁Ver	-367
ame	-368
ong	-369
ör	-370
ook	-371
▁su	-372
cht	-373
▁wor	-374
ze	-375
ige	-376
ite	-377
art	-378
▁ganz	-379
one	-380
▁wer	-381
ste	-382
▁ihre	-383
lie	-384
▁Ar	-385
▁beg	-386
▁wo	-387
▁Die	-388
ate	-389
▁out	-390
▁them	-391
▁Ge	-392
▁there	-393
red	-394
▁ro	-395
ood	-396
▁wieder	-397
▁wel	-398
ound	-399
▁dar	-400
ven	-401
ap	-402
▁Ich	-403
▁qu	-404
ade	-405
▁lie	-406
achte	-407
▁seine	-408
keit	-409
rä	-410
ng	-411
«,	-412
etzt	-413
▁ent	-414
ass	-415
▁gl	-416
▁durch	-417
ak	-418
▁go	-419
ät	-420
▁wenn	-421
▁Her	-422
▁einem	-423
ish	-424
▁fa	-425
▁bes	-426
ungen	-427
eine	-428
▁when	-429
▁what	-430
ild	-431
mal	-432
ommen	-433
▁been	-434
,'	-435
?"	-436
ute	-437
,"	-438
▁are	-439
▁Be	-440
ise	-441
ought	-442
ure	-443
▁zur	-444
▁ag	-445
▁kn	-446
acht	-447
heit	-448
▁could	-449
onsk	-450
od	-451
▁ste	-452
row	-453
änd	-454
▁tr	-455
!"	-456
pt	-457
ahr	-458
och	-459
▁Augen	-460
rei	-461
elt	-462
ack	-463
ert	-464
sten	-465
▁br	-466
ough	-467
ire	-468
▁look	-469
ele	-470
▁more	-471
▁did	-472
ren	-473
sam	-474
▁doch	-475
thing	-476
▁their	-477
▁bei	-478
ine	-479
ide	-480
▁hand	-481
wei	-482
.'	-483
▁einer	-484
ick	-485
▁now	-486
▁about	-487
jew	-488
▁habe	-489
ond	-490
urn	-491
▁if	-492
ßen	-493
▁your	-494
bst	-495
▁tim	-496
▁unter	-497
bl	-498
▁com	-499
▁pr	-500
pf	-501
way	-502
▁fe	-503
eit	-504
age	-505
▁In	-506
ov	-507
to	-508
ile	-509
pe	-510
ble	-511
▁dann	-512
▁en	-513
own	-514
zen	-515
▁kl	-516
leich	-517
ity	-518
▁sel	-519
▁bef	-520
ink	-521
▁denn	-522
▁then	-523
▁woll	-524
ges	-525
ost	-526
wo	-527
aft	-528
ary	-529
▁wei	-530
▁ever	-531
▁jetzt	-532
▁very	-533
lichen	-534
▁any	-535
pr	-536
isch	-537
▁Es	-538
▁She	-539
ah	-540
▁like	-541
esen	-542
▁haben	-543
▁mehr	-544
ner	-545
bt	-546
▁wä	-547
▁Und	-548
▁some	-549
▁pro	-550
▁bet	-551
tete	-552
ings	-553
ked	-554
ry	-555
ause	-556
▁fü	-557
▁again	-558
▁seiner	-559
▁diese	-560
able	-561
▁It	-562
per	-563
ive	-564
▁only	-565
▁kön	-566
ud	-567
ake	-568
äch	-569
▁know	-570
är	-571
ischen	-572
tes	-573
▁et	-574
▁Un	-575
▁time	-576
▁too	-577
ug	-578
▁sehr	-579
assen	-580
vin	-581
wer	-582
hal	-583
▁Aber	-584
blick	-585
br	-586
lex	-587
hat	-588
▁into	-589
lle	-590
▁Gr	-591
▁schon	-592
ally	-593
▁And	-594
▁see	-595
stand	-596
ice	-597
ank	-598
was	-599
iv	-600
nt	-601
Ich	-602
▁get	-603
ronsk	-604
hne	-605
▁Der	-606
los	-607
▁Mr	-608
▁nie	-609
ittle	-610
ange	-611
ief	-612
fü	-613
▁over	-614
▁thought	-615
▁long	-616
ue	-617
ath	-618
▁gr	-619
▁But	-620
ac	-621
ance	-622
liche	-623
iß	-624
▁waren	-625
▁little	-626
▁gro	-627
▁ger	-628
angen	-629
nte	-630
▁sei	-631
fter	-632
ys	-633
▁dis	-634
▁oder	-635
immer	-636
ies	-637
▁bl	-638
▁Alex	-639
bar	-640
▁zum	-641
ster	-642
▁ad	-643
▁selbst	-644
▁immer	-645
ider	-646
,«	-647
og	-648
auf	-649
▁uns	-650
achen	-651
▁Anna	-652
▁ob	-653
▁even	-654
if	-655
▁wur	-656
▁pl	-657
▁ey	-658
▁Frau	-659
ls	-660
▁dieser	-661
▁muß	-662
▁werden	-663
▁sm	-664
▁bec	-665
▁Ein	-666
!'	-667
?'	-668
cc	-669
▁himself	-670
▁ja	-671
▁Re	-672
itsch	-673
▁off	-674
▁wür	-675
iden	-676
...	-677
▁down	-678
are	-679
old	-680
einen	-681
tz	-682
ose	-683
▁under	-684
▁hät	-685
▁sind	-686
eln	-687
jewin	-688
enden	-689
essen	-690
▁Ljewin	-691
▁fl	-692
▁,	-693
dem	-694
▁Tom	-695
▁kann	-696
▁every	-697
You	-698
▁still	-699
▁Zeit	-700
▁sah	-701
▁alles	-702
▁Levin	-703
▁seinen	-704
▁pe	-705
▁rem	-706
▁gre	-707
▁Ste	-708
ated	-709
▁say	-710
▁etwas	-711
▁nichts	-712
▁Das	-713
▁fra	-714
iger	-715
▁than	-716
ger	-717
imm	-718
gt	-719
▁dr	-720
▁should	-721
▁fort	-722
igkeit	-723
▁has	-724
schaft	-725
iss	-726
▁hal	-727
▁alle	-728
▁Vor	-729
▁other	-730
▁welche	-731
ious	-732
▁Hand	-733
▁went	-734
ove	-735
erk	-736
▁gen	-737
▁can	-738
▁soll	-739
▁ra	-740
▁Kitt	-741
▁,,	-742
▁em	-743
▁stand	-744
▁Em	-745
▁its	-746
▁kon	-747
hing	-748
ried	-749
ving	-750
▁how	-751
▁We	-752
▁zurück	-753
ts	-754
ep	-755
▁app	-756
air	-757
▁seinem	-758
other	-759
▁ohne	-760
▁seem	-761
▁hier	-762
kommen	-763
eren	-764
ob	-765
▁meine	-766
▁Ih	-767
ester	-768
wor	-769
schen	-770
ars	-771
ma	-772
▁such	-773
▁po	-774
▁just	-775
▁Kitty	-776
ward	-777
war	-778
ater	-779
▁gar	-780
nis	-781
▁bo	-782
▁us	-783
sk	-784
iter	-785
▁before	-786
▁wurde	-787
▁ging	-788
ald	-789
omet	-790
▁good	-791
▁turn	-792
▁jed	-793
wn	-794
▁back	-795
cher	-796
mit	-797
▁made	-798
▁wen	-799
▁ihrer	-800
gel	-801
▁after	-802
ied	-803
ße	-804
ache	-805
hren	-806
▁fir	-807
▁two	-808
ful	-809
tet	-810
▁rep	-811
▁wird	-812
ps	-813
▁hätte	-814
▁bed	-815
hrend	-816
ün	-817
orn	-818
▁door	-819
▁konnte	-820
▁way	-821
▁la	-822
pen	-823
ree	-824
▁ir	-825
▁come	-826
▁eyes	-827
▁--	-828
ced	-829
▁Aus	-830
▁kam	-831
inn	-832
▁fu	-833
▁think	-834
▁Men	-835
▁Ch	-836
ions	-837
ady	-838
▁must	-839
▁ihren	-840
▁head	-841
ness	-842
▁Mann	-843
▁So	-844
än	-845
gend	-846
ved	-847
les	-848
▁bis	-849
ty	-850
leas	-851
▁nun	-852
▁geh	-853
▁much	-854
▁Kar	-855
▁vers	-856
tel	-857
▁res	-858
fl	-859
▁dich	-860
▁gegen	-861
eu	-862
igh	-863
▁zwei	-864
▁bin	-865
▁without	-866
▁(	-867
ese	-868
▁never	-869
▁fragte	-870
ave	-871
▁wohl	-872
ock	-873
▁face	-874
▁Fre	-875
▁wollte	-876
▁eines	-877
glich	-878
▁somet	-879
▁würde	-880
▁diesem	-881
▁Augenblick	-882
iff	-883
▁also	-884
▁thr	-885
eil	-886
▁spe	-887
▁per	-888
äu	-889
▁gleich	-890
▁einmal	-891
üs	-892
▁pre	-893
si	-894
▁inter	-895
▁don	-896
▁imp	-897
alt	-898
▁pass	-899
aß	-900
ister	-901
▁came	-902
led	-903
▁spr	-904
ci	-905
▁Herr	-906
uh	-907
eing	-908
▁ins	-909
▁end	-910
▁sagen	-911
▁Sp	-912
ingen	-913
▁keine	-914
▁jen	-915
tern	-916
▁werde	-917
ely	-918
▁Ged	-919
▁mö	-920
▁first	-921
alk	-922
▁Leben	-923
ment	-924
▁beh	-925
▁day	-926
▁›	-927
▁cons	-928
▁sol	-929
ord	-930
▁sc	-931
▁seemed	-932
uck	-933
▁ke	-934
▁bre	-935
▁cont	-936
unk	-937
issen	-938
▁viel	-939
▁fre	-940
ather	-941
▁lau	-942
äd	-943
▁Gesicht	-944
aking	-945
lt	-946
chte	-947
▁Kop	-948
anken	-949
▁old	-950
üt	-951
▁Fr	-952
▁Par	-953
▁room	-954
lau	-955
▁away	-956
▁well	-957
▁here	-958
▁wa	-959
▁felt	-960
▁hör	-961
▁Ihr	-962
isten	-963
▁word	-964
olly	-965
▁gewesen	-966
bei	-967
fall	-968
▁asked	-969
ander	-970
get	-971
▁where	-972
iz	-973
atter	-974
its	-975
▁let	-976
oment	-977
ouse	-978
pl	-979
enk	-980
ho	-981
äng	-982
▁tra	-983
▁kein	-984
arm	-985
ppen	-986
▁gesch	-987
▁Auf	-988
ha	-989
▁fin	-990
▁können	-991
▁Jo	-992
▁bro	-993
▁looked	-994
aten	-995
hlte	-996
▁voll	-997
▁Se	-998
▁bel	-999
▁dieses	-1000
omm	-1001
eld	-1002
▁ant	-1003
▁Bet	-1004
▁Mit	-1005
▁dre	-1006
▁ihrem	-1007
▁ihnen	-1008
▁kne	-1009
pan	-1010
etzte	-1011
ting	-1012
▁moment	-1013
▁saw	-1014
▁feel	-1015
▁arm	-1016
▁wom	-1017
▁nothing	-1018
reg	-1019
cted	-1020
unde	-1021
fer	-1022
▁eben	-1023
unden	-1024
▁something	-1025
▁Als	-1026
▁began	-1027
▁gel	-1028
▁pla	-1029
▁weiß	-1030
▁best	-1031
▁cl	-1032
ane	-1033
ily	-1034
igt	-1035
▁Pr	-1036
▁child	-1037
▁dir	-1038
sicht	-1039
▁str	-1040
▁vie	-1041
▁Emma	-1042
▁Schw	-1043
▁once	-1044
▁these	-1045
ches	-1046
hmen	-1047
ian	-1048
▁upon	-1049
orm	-1050
▁wenig	-1051
ielt	-1052
▁Wronsk	-1053
ished	-1054
ect	-1055
▁...	-1056
▁sehen	-1057
▁pos	-1058
ruck	-1059
ways	-1060
itz	-1061
▁ans	-1062
▁sond	-1063
▁Ab	-1064
elte	-1065
▁those	-1066
▁Zimmer	-1067
cken	-1068
▁because	-1069
▁Alexand	-1070
▁car	-1071
▁verg	-1072
▁hatten	-1073
nde	-1074
rit	-1075
▁wäre	-1076
▁pleas	-1077
▁zw	-1078
▁glau	-1079
▁great	-1080
▁Bes	-1081
ign	-1082
cess	-1083
ces	-1084
ently	-1085
▁quite	-1086
▁through	-1087
▁Nach	-1088
▁machte	-1089
▁Vronsk	-1090
▁Q	-1091
ves	-1092
▁put	-1093
ared	-1094
▁co	-1095
▁te	-1096
▁gef	-1097
vor	-1098
▁gem	-1099
dr	-1100
▁gut	-1101
▁life	-1102
▁zusam	-1103
▁versch	-1104
▁Vronsky	-1105
▁love	-1106
▁vo	-1107
ständ	-1108
ss	-1109
▁ser	-1110
▁ersch	-1111
▁Ihnen	-1112
▁always	-1113
vers	-1114
inder	-1115
▁open	-1116
▁Blick	-1117
ische	-1118
ase	-1119
▁acc	-1120
▁Gl	-1121
ople	-1122
▁gerade	-1123
▁Ger	-1124
▁tre	-1125
▁schw	-1126
▁antwor	-1127
lice	-1128
halten	-1129
▁machen	-1130
owed	-1131
▁last	-1132
▁being	-1133
utter	-1134
Yes	-1135
ont	-1136
igte	-1137
▁new	-1138
▁rec	-1139
▁verl	-1140
▁own	-1141
▁lang	-1142
ik	-1143
ende	-1144
▁Lie	-1145
▁wind	-1146
▁zusammen	-1147
ott	-1148
▁hands	-1149
▁rief	-1150
bend	-1151
ffen	-1152
▁erw	-1153
hm	-1154
ret	-1155
▁Wronski	-1156
▁part	-1157
▁bem	-1158
▁make	-1159
▁ret	-1160
ors	-1161
▁while	-1162
▁people	-1163
ahren	-1164
▁vom	-1165
▁Kopf	-1166
▁während	-1167
llen	-1168
▁Wie	-1169
▁mar	-1170
▁Alice	-1171
▁took	-1172
▁Für	-1173
▁Wor	-1174
bte	-1175
▁They	-1176
▁diesen	-1177
lichkeit	-1178
▁dachte	-1179
blonsk	-1180
mals	-1181
▁All	-1182
▁Oblonsk	-1183
man	-1184
▁Fl	-1185
▁call	-1186
▁Gesch	-1187
Ja	-1188
fort	-1189
ichte	-1190
onst	-1191
▁Dolly	-1192
▁Unter	-1193
▁might	-1194
ochester	-1195
▁herself	-1196
ount	-1197
teil	-1198
essed	-1199
▁weil	-1200
hlen	-1201
▁weiter	-1202
▁Rochester	-1203
▁sil	-1204
geben	-1205
▁same	-1206
att	-1207
▁Alexandrow	-1208
kann	-1209
ale	-1210
▁ho	-1211
▁tell	-1212
▁heard	-1213
▁right	-1214
ple	-1215
▁Pl	-1216
agen	-1217
▁Qu	-1218
orgen	-1219
▁cour	-1220
▁begann	-1221
▁lassen	-1222
als	-1223
ince	-1224
▁el	-1225
ged	-1226
ßer	-1227
kl	-1228
rechen	-1229
ents	-1230
here	-1231
▁left	-1232
ädchen	-1233
ogen	-1234
▁dist	-1235
pped	-1236
uld	-1237
▁gu	-1238
aster	-1239
▁You	-1240
▁men	-1241
▁house	-1242
▁sondern	-1243
▁sat	-1244
▁Hau	-1245
äm	-1246
fte	-1247
▁Wir	-1248
▁That	-1249
ub	-1250
agt	-1251
ull	-1252
Oh	-1253
iten	-1254
the	-1255
weg	-1256
ene	-1257
inner	-1258
▁work	-1259
▁going	-1260
ehen	-1261
ppe	-1262
▁nah	-1263
▁schl	-1264
▁Then	-1265
inu	-1266
▁müs	-1267
kt	-1268
▁take	-1269
ife	-1270
What	-1271
sche	-1272
▁Stim	-1273
▁knew	-1274
aum	-1275
ched	-1276
▁want	-1277
ence	-1278
ingo	-1279
▁shall	-1280
▁schien	-1281
ult	-1282
▁round	-1283
▁ließ	-1284
▁Was	-1285
licher	-1286
▁another	-1287
▁star	-1288
▁irgend	-1289
▁_	-1290
▁antwortete	-1291
itter	-1292
ling	-1293
▁neu	-1294
▁aller	-1295
ition	-1296
up	-1297
oun	-1298
under	-1299
▁Tür	-1300
▁talk	-1301
ush	-1302
iness	-1303
▁Gringo	-1304
üh	-1305
▁Ad	-1306
▁gir	-1307
▁answer	-1308
az	-1309
aint	-1310
▁Gringoire	-1311
av	-1312
▁Paris	-1313
▁heart	-1314
▁voice	-1315
▁dra	-1316
▁Land	-1317
äß	-1318
ften	-1319
▁nat	-1320
▁night	-1321
▁young	-1322
▁Gedanken	-1323
▁got	-1324
▁Händ	-1325
▁erst	-1326
tem	-1327
ction	-1328
ations	-1329
▁gi	-1330
▁fuhr	-1331
▁einz	-1332
▁found	-1333
▁lange	-1334
▁turned	-1335
ised	-1336
▁There	-1337
ded	-1338
▁ze	-1339
lei	-1340
net	-1341
sible	-1342
entlich	-1343
−−	-1344
▁Ent	-1345
▁our	-1346
▁yet	-1347
▁At	-1348
▁wahr	-1349
▁having	-1350
erin	-1351
voll	-1352
▁Man	-1353
lied	-1354
▁bere	-1355
enin	-1356
▁against	-1357
gh	-1358
atz	-1359
▁Haus	-1360
amen	-1361
ained	-1362
▁Karenin	-1363
ungs	-1364
▁ganze	-1365
ßte	-1366
iges	-1367
▁Pro	-1368
▁find	-1369
hrte	-1370
▁Wo	-1371
gleich	-1372
▁Mädchen	-1373
▁mußte	-1374
von	-1375
▁Ark	-1376
▁geb	-1377
▁wuß	-1378
▁fühlte	-1379
vo	-1380
▁Ne	-1381
gesch	-1382
unter	-1383
▁pers	-1384
▁blick	-1385
▁meiner	-1386
fel	-1387
▁ange	-1388
▁diff	-1389
ody	-1390
▁sl	-1391
▁toward	-1392
▁Oblonsky	-1393
▁Tag	-1394
▁kommen	-1395
hrt	-1396
öhn	-1397
nete	-1398
▁hast	-1399
ötz	-1400
▁hel	-1401
hy	-1402
tent	-1403
ans	-1404
▁Br	-1405
▁hörte	-1406
leid	-1407
▁clo	-1408
▁nahm	-1409
▁Stimme	-1410
Sie	-1411
▁cle	-1412
▁besch	-1413
▁hielt	-1414
gr	-1415
oy	-1416
ört	-1417
▁Bl	-1418
▁light	-1419
▁andere	-1420
▁Menschen	-1421
▁bald	-1422
▁things	-1423
▁soon	-1424
schein	-1425
fa	-1426
▁appe	-1427
▁gest	-1428
rochen	-1429
jewitsch	-1430
▁Mrs	-1431
▁window	-1432
▁beiden	-1433
iet	-1434
▁Ser	-1435
Well	-1436
wand	-1437
ail	-1438
▁far	-1439
ating	-1440
▁three	-1441
▁Ha	-1442
▁ac	-1443
ined	-1444
▁Arbe	-1445
▁near	-1446
▁Mutter	-1447
geg	-1448
ude	-1449
auer	-1450
▁wollen	-1451
öff	-1452
▁Pet	-1453
▁This	-1454
▁drei	-1455
▁eigen	-1456
hin	-1457
▁Um	-1458
▁read	-1459
ser	-1460
press	-1461
▁Jane	-1462
▁sollte	-1463
ither	-1464
▁Arkad	-1465
▁wußte	-1466
fle	-1467
▁hor	-1468
▁dort	-1469
▁wirk	-1470
▁understand	-1471
ix	-1472
▁recht	-1473
▁Alexei	-1474
ille	-1475
ween	-1476
▁gab	-1477
▁zwischen	-1478
ER	-1479
▁Ü	-1480
▁words	-1481
so	-1482
▁wife	-1483
▁better	-1484
▁everything	-1485
No	-1486
ired	-1487
▁Schl	-1488
▁mind	-1489
▁hinter	-1490
Das	-1491
▁Kön	-1492
▁Kinder	-1493
gar	-1494
ließ	-1495
ying	-1496
esser	-1497
▁though	-1498
▁When	-1499
▁wish	-1500
haft	-1501
nung	-1502
▁Wenn	-1503
▁davon	-1504
▁anything	-1505
▁woman	-1506
▁..	-1507
llt	-1508
ctor	-1509
less	-1510
reck	-1511
▁indem	-1512
anted	-1513
ichen	-1514
▁allen	-1515
▁welcher	-1516
▁stra	-1517
▁ye	-1518
▁ber	-1519
▁sur	-1520
▁Dann	-1521
▁meinen	-1522
Aber	-1523
pect	-1524
▁ruh	-1525
fä	-1526
▁between	-1527
ahl	-1528
▁Nacht	-1529
▁großen	-1530
asch	-1531
iend	-1532
ragen	-1533
lleicht	-1534
ötzlich	-1535
▁Greg	-1536
▁gehen	-1537
▁ganzen	-1538
▁heraus	-1539
▁Ende	-1540
▁thing	-1541
äl	-1542
aken	-1543
▁set	-1544
▁tru	-1545
ready	-1546
▁...«	-1547
zimmer	-1548
▁On	-1549
ember	-1550
▁What	-1551
▁Da	-1552
▁läch	-1553
▁poin	-1554
▁Hause	-1555
▁mother	-1556
It	-1557
▁give	-1558
ertain	-1559
▁besond	-1560
ph	-1561
▁ear	-1562
igung	-1563
sehen	-1564
▁dabei	-1565
▁reg	-1566
▁foll	-1567
▁looking	-1568
▁Alexandrowitsch	-1569
▁Fen	-1570
▁fol	-1571
▁mov	-1572
▁friend	-1573
▁many	-1574
▁place	-1575
▁gesagt	-1576
urm	-1577
band	-1578
ucht	-1579
▁Art	-1580
▁darauf	-1581
▁already	-1582
ächt	-1583
▁half	-1584
anc	-1585
.,	-1586
And	-1587
▁dec	-1588
▁seen	-1589
▁Worte	-1590
▁whole	-1591
Was	-1592
ngl	-1593
isen	-1594
amm	-1595
▁fell	-1596
ered	-1597
▁replied	-1598
▁tro	-1599
▁stood	-1600
▁Stepan	-1601
▁Arkadjewitsch	-1602
▁ind	-1603
▁Herz	-1604
▁most	-1605
▁Gegen	-1606
▁quest	-1607
▁whom	-1608
▁gewor	-1609
▁andern	-1610
ement	-1611
of	-1612
▁Gefü	-1613
▁conf	-1614
▁return	-1615
dden	-1616
▁Huck	-1617
gl	-1618
bed	-1619
▁Gew	-1620
odo	-1621
▁fast	-1622
▁kleinen	-1623
▁Or	-1624
lock	-1625
▁zer	-1626
▁both	-1627
▁ersten	-1628
▁blickte	-1629
▁belie	-1630
bes	-1631
▁done	-1632
▁hear	-1633
▁order	-1634
▁allein	-1635
ja	-1636
Nein	-1637
▁damit	-1638
▁cur	-1639
▁enter	-1640
▁Zu	-1641
▁may	-1642
▁pain	-1643
hol	-1644
▁lag	-1645
▁daran	-1646
▁seines	-1647
▁consider	-1648
nü	-1649
zä	-1650
geb	-1651
▁Char	-1652
▁Wei	-1653
▁bit	-1654
▁side	-1655
▁smile	-1656
▁Du	-1657
▁darüber	-1658
Und	-1659
ais	-1660
ücken	-1661
▁hard	-1662
Es	-1663
▁sec	-1664
▁kind	-1665
ichter	-1666
▁Fürst	-1667
ever	-1668
▁Kl	-1669
▁Kind	-1670
▁anderen	-1671
eder	-1672
▁each	-1673
▁schne	-1674
▁Gregor	-1675
sp	-1676
ool	-1677
▁Hö	-1678
▁trat	-1679
zie	-1680
llte	-1681
▁matter	-1682
äft	-1683
▁bla	-1684
▁told	-1685
els	-1686
▁sprach	-1687
fol	-1688
▁Not	-1689
▁law	-1690
▁Ant	-1691
▁girl	-1692
▁pres	-1693
inge	-1694
lieb	-1695
ross	-1696
rown	-1697
▁hus	-1698
gehen	-1699
aut	-1700
oud	-1701
asim	-1702
eite	-1703
▁dou	-1704
anden	-1705
gest	-1706
▁del	-1707
lossen	-1708
But	-1709
▁eig	-1710
▁empf	-1711
elegen	-1712
▁Abend	-1713
aps	-1714
▁Tage	-1715
asimodo	-1716
▁sudden	-1717
tre	-1718
▁Über	-1719
ichten	-1720
▁Am	-1721
schl	-1722
▁Fenster	-1723
üb	-1724
ial	-1725
▁Ihre	-1726
▁beim	-1727
▁König	-1728
▁geworden	-1729
ip	-1730
for	-1731
▁Kir	-1732
▁wand	-1733
▁weit	-1734
▁exc	-1735
erkte	-1736
achten	-1737
▁verste	-1738
▁Quasimodo	-1739
med	-1740
▁att	-1741
fin	-1742
▁Al	-1743
▁Ph	-1744
▁certain	-1745
ib	-1746
ory	-1747
▁Me	-1748
wir	-1749
ünd	-1750
▁tun	-1751
ides	-1752
ender	-1753
▁Miss	-1754
▁full	-1755
arge	-1756
over	-1757
rage	-1758
ruder	-1759
▁does	-1760
▁wanted	-1761
▁ev	-1762
ual	-1763
▁continu	-1764
▁müssen	-1765
▁brother	-1766
ield	-1767
mann	-1768
▁verm	-1769
▁dessen	-1770
ope	-1771
prä	-1772
▁supp	-1773
▁gra	-1774
▁Dien	-1775
▁tri	-1776
▁wirklich	-1777
Nun	-1778
hör	-1779
ower	-1780
▁husband	-1781
aun	-1782
▁Mad	-1783
▁War	-1784
▁Liebe	-1785
▁listen	-1786
ens	-1787
▁Bau	-1788
fahren	-1789
ular	-1790
▁Stra	-1791
bus	-1792
oot	-1793
▁welches	-1794
xt	-1795
▁nor	-1796
chten	-1797
▁suff	-1798
▁setzte	-1799
umm	-1800
▁called	-1801
▁cap	-1802
▁whe	-1803
▁disc	-1804
▁fall	-1805
▁kleine	-1806
day	-1807
ached	-1808
▁fing	-1809
atch	-1810
ovary	-1811
▁Bruder	-1812
▁need	-1813
ict	-1814
most	-1815
unge	-1816
▁aff	-1817
▁mer	-1818
ürlich	-1819
▁Bovary	-1820
ks	-1821
▁eff	-1822
▁Sache	-1823
room	-1824
HA	-1825
▁To	-1826
▁hö	-1827
▁inc	-1828
▁care	-1829
▁offen	-1830
▁speak	-1831
▁longer	-1832
▁myself	-1833
▁gesehen	-1834
ash	-1835
acon	-1836
halb	-1837
▁jem	-1838
▁help	-1839
▁alone	-1840
▁schle	-1841
üm	-1842
TER	-1843
ason	-1844
▁bus	-1845
▁Gott	-1846
wan	-1847
▁gave	-1848
▁-	-1849
utz	-1850
▁happ	-1851
▁große	-1852
The	-1853
▁sto	-1854
ately	-1855
will	-1856
▁betr	-1857
enka	-1858
▁Mar	-1859
▁weg	-1860
▁Prin	-1861
▁morn	-1862
▁stre	-1863
▁außer	-1864
▁worden	-1865
ia	-1866
▁His	-1867
▁pa	-1868
urcht	-1869
▁Iwan	-1870
▁home	-1871
▁passed	-1872
▁dazu	-1873
▁ph	-1874
▁Fuß	-1875
▁sou	-1876
▁Bild	-1877
▁Weise	-1878
▁hinzu	-1879
ler	-1880
▁Kr	-1881
ully	-1882
ures	-1883
▁vis	-1884
▁John	-1885
▁cor	-1886
druck	-1887
etzten	-1888
▁nieder	-1889
▁vielleicht	-1890
mand	-1891
riff	-1892
▁hour	-1893
leep	-1894
ters	-1895
▁zog	-1896
▁ihres	-1897
▁occ	-1898
▁sub	-1899
▁schön	-1900
▁remember	-1901
ker	-1902
▁Bo	-1903
▁sk	-1904
gegen	-1905
▁rest	-1906
▁table	-1907
▁hinaus	-1908
▁morning	-1909
rief	-1910
▁cann	-1911
▁fest	-1912
▁wissen	-1913
iderte	-1914
▁Serge	-1915
▁Gesprä	-1916
▁keinen	-1917
▁erwiderte	-1918
▁Seite	-1919
▁plötzlich	-1920
▁ass	-1921
▁rel	-1922
▁arch	-1923
▁comp	-1924
▁Leute	-1925
ject	-1926
▁keep	-1927
▁komm	-1928
liches	-1929
▁white	-1930
wohl	-1931
▁Geb	-1932
▁ged	-1933
▁Welt	-1934
gs	-1935
▁Miß	-1936
▁adv	-1937
▁rose	-1938
▁blieb	-1939
▁hervor	-1940
▁fam	-1941
entle	-1942
lagen	-1943
thers	-1944
▁Wort	-1945
äh	-1946
sky	-1947
▁Tr	-1948
▁CHA	-1949
▁schwer	-1950
▁mag	-1951
▁sogar	-1952
ants	-1953
▁cal	-1954
▁dep	-1955
▁cannot	-1956
ym	-1957
▁tw	-1958
PTER	-1959
▁ask	-1960
▁sit	-1961
▁spo	-1962
▁behind	-1963
▁CHAPTER	-1964
▁gekommen	-1965
▁ter	-1966
selben	-1967
off	-1968
atten	-1969
▁wandte	-1970
▁Son	-1971
▁hum	-1972
ennen	-1973
fully	-1974
▁Pf	-1975
aden	-1976
anke	-1977
▁Kam	-1978
▁poor	-1979
▁wall	-1980
▁question	-1981
▁No	-1982
▁God	-1983
▁few	-1984
▁Bett	-1985
▁hold	-1986
▁ander	-1987
▁Iwanow	-1988
▁suddenly	-1989
▁black	-1990
▁large	-1991
▁vier	-1992
▁clear	-1993
▁Gefühl	-1994
▁ed	-1995
ured	-1996
▁frü	-1997
▁Läch	-1998
▁Arbeit	-1999
▁schnell	-2000
yer	-2001
▁Thür	-2002
▁course	-2003
▁evening	-2004
cke	-2005
gem	-2006
ieg	-2007
▁wait	-2008
▁Sergei	-2009
▁erschien	-2010
ats	-2011
ows	-2012
ieur	-2013
raft	-2014
▁par	-2015
▁dire	-2016
ellschaft	-2017
▁aw	-2018
▁erh	-2019
▁Haupt	-2020
▁Y	-2021
ahre	-2022
▁kur	-2023
▁inst	-2024
▁stehen	-2025
hle	-2026
haps	-2027
bo	-2028
loß	-2029
iled	-2030
▁ide	-2031
▁sir	-2032
▁why	-2033
▁forg	-2034
▁heute	-2035
▁klein	-2036
▁really	-2037
etzen	-2038
ährend	-2039
▁Seele	-2040
▁denen	-2041
res	-2042
▁Ru	-2043
ical	-2044
▁air	-2045
▁gemacht	-2046
▁niemals	-2047
,−−	-2048
tend	-2049
inter	-2050
▁sort	-2051
ält	-2052
▁serv	-2053
),	-2054
äher	-2055
▁mal	-2056
▁almost	-2057
▁Lächeln	-2058
cept	-2059
▁fand	-2060
ided	-2061
▁könnte	-2062
elle	-2063
▁How	-2064
▁öff	-2065
▁Pfer	-2066
▁gentle	-2067
öt	-2068
une	-2069
ärt	-2070
▁los	-2071
▁alte	-2072
▁möglich	-2073
▁che	-2074
▁swe	-2075
ace	-2076
▁As	-2077
▁Dar	-2078
▁sim	-2079
▁sor	-2080
▁mean	-2081
elegenheit	-2082
▁ä	-2083
gether	-2084
▁meinem	-2085
▁schwar	-2086
▁Mos	-2087
▁fiel	-2088
▁tief	-2089
onsieur	-2090
▁einige	-2091
▁enough	-2092
▁sofort	-2093
du	-2094
wür	-2095
▁bew	-2096
▁blei	-2097
▁clos	-2098
▁besser	-2099
▁happen	-2100
▁sister	-2101
▁feeling	-2102
▁sprechen	-2103
▁Vol	-2104
▁glück	-2105
▁children	-2106
kam	-2107
reich	-2108
...'	-2109
ceiv	-2110
owing	-2111
▁groß	-2112
▁alten	-2113
zt	-2114
▁ü	-2115
llig	-2116
▁hur	-2117
reu	-2118
zte	-2119
iver	-2120
zogen	-2121
▁dark	-2122
▁laugh	-2123
▁sound	-2124
Ach	-2125
body	-2126
▁dro	-2127
▁inv	-2128
selves	-2129
▁Li	-2130
▁je	-2131
▁Karl	-2132
▁arms	-2133
▁dein	-2134
▁draw	-2135
▁taken	-2136
▁Herzen	-2137
airs	-2138
elnd	-2139
ited	-2140
▁act	-2141
▁mon	-2142
▁gehe	-2143
hau	-2144
▁Kn	-2145
▁lay	-2146
▁Mary	-2147
▁Lu	-2148
▁erzä	-2149
▁unge	-2150
▁count	-2151
▁cr	-2152
▁small	-2153
▁father	-2154
rän	-2155
riest	-2156
▁less	-2157
▁könne	-2158
onstant	-2159
ging	-2160
ieren	-2161
weise	-2162
▁geben	-2163
▁convers	-2164
▁mo	-2165
asse	-2166
ckte	-2167
▁Schul	-2168
▁appro	-2169
ieden	-2170
öglich	-2171
▁Ang	-2172
▁lov	-2173
▁min	-2174
adt	-2175
▁book	-2176
▁Vater	-2177
▁deren	-2178
▁front	-2179
▁Madame	-2180
▁Charles	-2181
▁business	-2182
▁Schwester	-2183
af	-2184
ahe	-2185
bur	-2186
oren	-2187
▁tried	-2188
▁brau	-2189
▁Wagen	-2190
▁whose	-2191
▁express	-2192
ably	-2193
▁ang	-2194
form	-2195
▁cond	-2196
fallen	-2197
▁Glück	-2198
utes	-2199
▁eye	-2200
▁low	-2201
ushed	-2202
▁others	-2203
amp	-2204
erst	-2205
ritt	-2206
ichts	-2207
llung	-2208
uchte	-2209
▁Vers	-2210
▁foot	-2211
▁name	-2212
▁met	-2213
▁Beweg	-2214
▁ebenso	-2215
▁früher	-2216
eh	-2217
ible	-2218
reng	-2219
▁ill	-2220
▁seit	-2221
▁Jetzt	-2222
▁leave	-2223
ins	-2224
unt	-2225
wort	-2226
innen	-2227
schte	-2228
▁Saint	-2229
▁brought	-2230
▁answered	-2231
▁Im	-2232
▁bist	-2233
▁gern	-2234
▁Hände	-2235
▁added	-2236
▁along	-2237
▁opp	-2238
▁red	-2239
▁high	-2240
▁next	-2241
▁wild	-2242
▁world	-2243
▁continued	-2244
rat	-2245
▁wr	-2246
That	-2247
ande	-2248
▁wün	-2249
anged	-2250
stens	-2251
sh	-2252
bracht	-2253
▁doubt	-2254
▁Gesellschaft	-2255
zw	-2256
▁mid	-2257
▁pur	-2258
falls	-2259
▁bene	-2260
▁kaum	-2261
▁gewöhn	-2262
▁bemerkte	-2263
ird	-2264
uer	-2265
ule	-2266
▁pra	-2267
rieden	-2268
▁hinein	-2269
▁möchte	-2270
▁priest	-2271
len	-2272
▁If	-2273
▁Morgen	-2274
▁Fü	-2275
▁Gem	-2276
▁fact	-2277
▁unbe	-2278
▁together	-2279
▁X	-2280
▁Hom	-2281
▁dev	-2282
▁fur	-2283
▁cold	-2284
▁Ko	-2285
▁ma	-2286
▁mü	-2287
atur	-2288
fern	-2289
▁king	-2290
▁repe	-2291
▁above	-2292
prochen	-2293
▁Mensch	-2294
▁finden	-2295
▁believe	-2296
▁hair	-2297
▁saying	-2298
spr	-2299
used	-2300
wend	-2301
▁run	-2302
Wie	-2303
hlt	-2304
▁For	-2305
▁jeder	-2306
▁master	-2307
▁person	-2308
zer	-2309
zus	-2310
iced	-2311
▁Uhr	-2312
legen	-2313
uchen	-2314
ückte	-2315
▁sing	-2316
▁verd	-2317
▁Herren	-2318
▁sen	-2319
▁desp	-2320
▁since	-2321
▁Fle	-2322
▁Euch	-2323
▁sent	-2324
itting	-2325
▁Frage	-2326
zeug	-2327
▁jud	-2328
▁Tisch	-2329
▁neben	-2330
▁quick	-2331
▁ruhig	-2332
uss	-2333
tain	-2334
ience	-2335
▁Geld	-2336
▁Verg	-2337
▁cried	-2338
▁women	-2339
einander	-2340
lic	-2341
▁Stu	-2342
▁water	-2343
▁Lebens	-2344
▁whether	-2345
▁Augenblicke	-2346
öl	-2347
▁Clau	-2348
▁expl	-2349
achtete	-2350
▁rather	-2351
ka	-2352
ßt	-2353
zeit	-2354
▁Sir	-2355
▁flo	-2356
▁else	-2357
▁church	-2358
kun	-2359
▁Diese	-2360
▁legte	-2361
abt	-2362
▁jener	-2363
▁näher	-2364
▁opened	-2365
▁wurden	-2366
ets	-2367
ante	-2368
▁saß	-2369
▁stud	-2370
▁Herrn	-2371
▁Claude	-2372
ckt	-2373
ump	-2374
ates	-2375
▁Mal	-2376
chter	-2377
▁Engl	-2378
▁Seit	-2379
brigen	-2380
▁years	-2381
▁Princess	-2382
ili	-2383
▁unc	-2384
alked	-2385
▁solche	-2386
▁themselves	-2387
▁conversation	-2388
eten	-2389
laim	-2390
ress	-2391
▁Nun	-2392
asser	-2393
▁Homais	-2394
rö	-2395
uth	-2396
▁grö	-2397
▁joy	-2398
rauen	-2399
▁became	-2400
▁bereits	-2401
▁appeared	-2402
Du	-2403
nf	-2404
arr	-2405
ining	-2406
unkel	-2407
▁Buch	-2408
▁attent	-2409
▁diffic	-2410
▁gegenüber	-2411
uring	-2412
▁Mein	-2413
▁fire	-2414
▁schö	-2415
▁erwar	-2416
▁stopped	-2417
Ah	-2418
irc	-2419
illed	-2420
▁läng	-2421
▁Jahre	-2422
samkeit	-2423
no	-2424
halt	-2425
▁quiet	-2426
▁Ausdruck	-2427
▁Do	-2428
▁art	-2429
▁days	-2430
▁form	-2431
▁gold	-2432
▁heiß	-2433
▁genug	-2434
let	-2435
ient	-2436
▁Empf	-2437
▁soul	-2438
nehmen	-2439
▁necess	-2440
olz	-2441
olen	-2442
▁fine	-2443
▁gone	-2444
cially	-2445
▁gehört	-2446
▁letzten	-2447
ram	-2448
▁De	-2449
▁Bür	-2450
▁sun	-2451
richt	-2452
ummer	-2453
▁real	-2454
pected	-2455
undert	-2456
▁herum	-2457
▁towards	-2458
▁besonders	-2459
Why	-2460
änz	-2461
▁won	-2462
anger	-2463
▁glaube	-2464
▁schrie	-2465
▁Gespräch	-2466
▁Ä	-2467
ilt	-2468
▁gek	-2469
▁Gest	-2470
▁Lage	-2471
▁able	-2472
▁conc	-2473
ceived	-2474
▁impos	-2475
▁unser	-2476
▁Kirche	-2477
▁around	-2478
▁ru	-2479
▁int	-2480
igeun	-2481
ivers	-2482
▁neuen	-2483
▁Freude	-2484
ee	-2485
▁hab	-2486
itten	-2487
riage	-2488
▁feet	-2489
▁lost	-2490
▁sure	-2491
▁beide	-2492
▁offic	-2493
▁often	-2494
wa	-2495
▁bad	-2496
▁Höhe	-2497
▁Zigeun	-2498
▁possible	-2499
scheinlich	-2500
arn	-2501
ceed	-2502
fore	-2503
oney	-2504
▁Arm	-2505
▁emp	-2506
▁Zwei	-2507
▁inde	-2508
▁Geist	-2509
▁kommt	-2510
▁entsch	-2511
▁niemand	-2512
▁Iwanowitsch	-2513
ausend	-2514
▁least	-2515
▁wished	-2516
‹,	-2517
ede	-2518
ume	-2519
ennt	-2520
merk	-2521
▁till	-2522
▁wegen	-2523
▁nehmen	-2524
ski	-2525
▁dau	-2526
▁trou	-2527
▁given	-2528
sy	-2529
Die	-2530
▁sw	-2531
▁Gra	-2532
▁ele	-2533
aring	-2534
▁among	-2535
▁point	-2536
▁trotz	-2537
▁eigentlich	-2538
esh	-2539
rock	-2540
änder	-2541
▁char	-2542
▁mist	-2543
▁warf	-2544
▁import	-2545
▁jemand	-2546
ahn	-2547
iful	-2548
imes	-2549
pfen	-2550
umen	-2551
▁oft	-2552
arten	-2553
▁verb	-2554
▁dress	-2555
▁reden	-2556
▁short	-2557
▁followed	-2558
▁remained	-2559
ohn	-2560
▁land	-2561
▁play	-2562
▁cross	-2563
▁gener	-2564
tschaft	-2565
▁coming	-2566
irn	-2567
▁Now	-2568
▁einf	-2569
▁Platz	-2570
▁bringen	-2571
▁eigenen	-2572
ös	-2573
euer	-2574
▁Kat	-2575
▁son	-2576
alten	-2577
▁halb	-2578
▁sign	-2579
▁stay	-2580
▁Stelle	-2581
ließlich	-2582
He	-2583
für	-2584
▁lad	-2585
ittag	-2586
▁Pers	-2587
▁fünf	-2588
▁kiss	-2589
▁taking	-2590
▁Antwort	-2591
▁turning	-2592
▁verlassen	-2593
but	-2594
ieß	-2595
bled	-2596
inger	-2597
recht	-2598
üster	-2599
▁circ	-2600
▁Ze	-2601
zehn	-2602
▁Rei	-2603
▁Freund	-2604
▁denken	-2605
How	-2606
iety	-2607
▁Tre	-2608
▁held	-2609
indung	-2610
▁Grund	-2611
▁darin	-2612
▁fügte	-2613
▁entered	-2614
▁vergessen	-2615
Er	-2616
dle	-2617
ery	-2618
▁bede	-2619
▁lips	-2620
▁gewiß	-2621
▁perhaps	-2622
ctly	-2623
▁One	-2624
▁Pap	-2625
▁erkl	-2626
▁four	-2627
▁Seine	-2628
▁Joe	-2629
▁remar	-2630
gten	-2631
▁Ber	-2632
▁cre	-2633
eless	-2634
▁Auge	-2635
▁anzu	-2636
▁bell	-2637
▁geht	-2638
▁either	-2639
gew	-2640
▁bu	-2641
urst	-2642
▁Licht	-2643
▁interest	-2644
▁position	-2645
▁Bei	-2646
▁comm	-2647
▁money	-2648
▁viele	-2649
uf	-2650
▁spir	-2651
lieben	-2652
▁brachte	-2653
aff	-2654
▁Ur	-2655
head	-2656
uten	-2657
▁Bess	-2658
▁meet	-2659
▁paar	-2660
▁sleep	-2661
▁Peters	-2662
▁returned	-2663
othe	-2664
ußer	-2665
▁eas	-2666
▁pat	-2667
iling	-2668
ually	-2669
▁present	-2670
▁yourself	-2671
▁wiederhol	-2672
rug	-2673
vok	-2674
dings	-2675
▁acqu	-2676
▁arri	-2677
▁live	-2678
▁ought	-2679
▁making	-2680
▁Fürstin	-2681
ium	-2682
ois	-2683
▁Mü	-2684
that	-2685
▁Gen	-2686
▁zwe	-2687
inken	-2688
tened	-2689
▁kept	-2690
iously	-2691
▁power	-2692
ständig	-2693
▁gehabt	-2694
▁Monsieur	-2695
▁pleasure	-2696
zn	-2697
▁af	-2698
▁Himm	-2699
▁idea	-2700
▁neue	-2701
ousand	-2702
▁times	-2703
▁Lippen	-2704
▁become	-2705
▁würden	-2706
pecially	-2707
▁country	-2708
So	-2709
▁Ag	-2710
▁Sa	-2711
würd	-2712
▁ref	-2713
▁Reed	-2714
▁Namen	-2715
ütz	-2716
▁Fam	-2717
▁bra	-2718
▁ran	-2719
▁fear	-2720
rieben	-2721
▁beste	-2722
▁unver	-2723
▁Petersbur	-2724
▁dri	-2725
scher	-2726
▁tone	-2727
▁verh	-2728
▁walk	-2729
▁bring	-2730
▁leben	-2731
▁nachdem	-2732
pos	-2733
dern	-2734
hnte	-2735
ising	-2736
▁Eine	-2737
▁hope	-2738
kannte	-2739
▁junge	-2740
▁thousand	-2741
Na	-2742
bel	-2743
ette	-2744
land	-2745
read	-2746
▁zie	-2747
▁zwar	-2748
▁surpr	-2749
▁Frauen	-2750
hre	-2751
ime	-2752
aben	-2753
▁Trä	-2754
▁ern	-2755
▁erre	-2756
▁happy	-2757
▁Händen	-2758
▁itself	-2759
ex	-2760
ault	-2761
▁Kap	-2762
▁pol	-2763
▁sob	-2764
▁cand	-2765
▁hung	-2766
▁strange	-2767
mäß	-2768
eint	-2769
erent	-2770
ochte	-2771
selbe	-2772
äusch	-2773
▁lieb	-2774
fangen	-2775
stande	-2776
▁death	-2777
▁necessary	-2778
▁1	-2779
amed	-2780
▁Beg	-2781
▁mou	-2782
▁Fall	-2783
▁hoch	-2784
▁rich	-2785
▁daher	-2786
frieden	-2787
▁lieben	-2788
▁silence	-2789
▁talking	-2790
fax	-2791
ility	-2792
▁Fair	-2793
▁glad	-2794
laimed	-2795
▁Boden	-2796
▁herab	-2797
▁Ly	-2798
▁erg	-2799
haupt	-2800
stück	-2801
▁Ruhe	-2802
▁thus	-2803
▁beaut	-2804
▁hören	-2805
▁liebe	-2806
▁Wasser	-2807
▁presen	-2808
▁Fairfax	-2809
uff	-2810
inen	-2811
ering	-2812
▁crow	-2813
▁peas	-2814
▁Stunde	-2815
▁impossible	-2816
medi	-2817
ügel	-2818
annte	-2819
▁imag	-2820
▁jene	-2821
▁klar	-2822
▁steps	-2823
▁school	-2824
▁gegeben	-2825
▁especially	-2826
▁Ap	-2827
▁Notre	-2828
▁jeden	-2829
▁state	-2830
▁lawyer	-2831
oß	-2832
ific	-2833
immt	-2834
very	-2835
▁prom	-2836
▁whis	-2837
▁Famil	-2838
▁hinauf	-2839
▁glücklich	-2840
▁Zigeunerin	-2841
hev	-2842
inden	-2843
▁dear	-2844
▁hall	-2845
▁hätten	-2846
▁reason	-2847
▁noticed	-2848
▁solchen	-2849
itzen	-2850
▁slow	-2851
▁vorher	-2852
use	-2853
▁selt	-2854
▁verz	-2855
ichtet	-2856
▁Bessie	-2857
▁Während	-2858
geh	-2859
▁vi	-2860
ücht	-2861
affen	-2862
geste	-2863
▁näch	-2864
▁daugh	-2865
▁sonst	-2866
▁Erinner	-2867
▁bleiben	-2868
▁sn	-2869
durch	-2870
▁Teil	-2871
▁deep	-2872
▁nein	-2873
▁erhob	-2874
▁verstand	-2875
piel	-2876
znys	-2877
▁Dame	-2878
reiben	-2879
▁Wesen	-2880
znyshev	-2881
▁endlich	-2882
▁thoughts	-2883
▁Koznyshev	-2884
▁wenigstens	-2885
ückt	-2886
▁Chr	-2887
▁used	-2888
genden	-2889
ichtig	-2890
▁Schla	-2891
▁court	-2892
▁leise	-2893
▁ground	-2894
▁Bewegung	-2895
cri	-2896
lov	-2897
sinn	-2898
▁Advok	-2899
▁second	-2900
▁thinking	-2901
Dame	-2902
▁eil	-2903
▁wond	-2904
though	-2905
ror	-2906
▁lo	-2907
▁abs	-2908
▁Alle	-2909
▁late	-2910
heiten	-2911
aßt	-2912
ght	-2913
▁kü	-2914
iene	-2915
vern	-2916
▁tou	-2917
ances	-2918
chsel	-2919
▁lady	-2920
▁pict	-2921
onstantin	-2922
▁repeated	-2923
ett	-2924
gang	-2925
▁Gel	-2926
reten	-2927
▁Feuer	-2928
▁close	-2929
▁ready	-2930
▁watch	-2931
▁Blicke	-2932
▁halten	-2933
▁immedi	-2934
▁waiting	-2935
▁case	-2936
▁dead	-2937
itte	-2938
stra	-2939
▁mus	-2940
▁tas	-2941
▁use	-2942
ended	-2943
kunft	-2944
örper	-2945
▁dream	-2946
▁jungen	-2947
▁suchte	-2948
▁vorüber	-2949
.‹	-2950
II	-2951
kau	-2952
▁Rou	-2953
eufel	-2954
▁Arch	-2955
▁Arme	-2956
▁Haar	-2957
▁evid	-2958
▁trug	-2959
ischer	-2960
▁Adele	-2961
▁family	-2962
▁hardly	-2963
▁leicht	-2964
▁schlug	-2965
▁however	-2966
▁beautiful	-2967
yed	-2968
▁El	-2969
lace	-2970
▁Weg	-2971
▁arr	-2972
▁ben	-2973
▁geg	-2974
endes	-2975
icher	-2976
▁macht	-2977
▁zeigte	-2978
cy	-2979
rew	-2980
ses	-2981
zig	-2982
▁op	-2983
itze	-2984
▁exam	-2985
▁Schrit	-2986
▁doctor	-2987
vi	-2988
erm	-2989
iert	-2990
▁det	-2991
▁Jahr	-2992
▁Alles	-2993
genommen	-2994
▁lächelnd	-2995
gy	-2996
psy	-2997
▁jo	-2998
inal	-2999
merz	-3000
unst	-3001
zieh	-3002
äter	-3003
nisse	-3004
▁Verz	-3005
▁true	-3006
▁Stück	-3007
▁cover	-3008
▁stets	-3009
▁glaubte	-3010
HE	-3011
eth	-3012
▁Bü	-3013
chem	-3014
▁Ind	-3015
▁cry	-3016
▁hüb	-3017
▁lea	-3018
▁Wahr	-3019
▁sight	-3020
gegnete	-3021
inde	-3022
▁glo	-3023
ierte	-3024
▁Luft	-3025
▁Menge	-3026
▁Stadt	-3027
▁müsse	-3028
möglich	-3029
▁beschäft	-3030
▁Petersburg	-3031
idi	-3032
wär	-3033
▁gy	-3034
iser	-3035
▁Hut	-3036
▁Tro	-3037
antly	-3038
▁body	-3039
▁allem	-3040
▁deine	-3041
▁moved	-3042
▁super	-3043
▁beneath	-3044
▁Konstantin	-3045
In	-3046
öh	-3047
▁Oh	-3048
akes	-3049
iana	-3050
▁deut	-3051
ending	-3052
▁Brief	-3053
▁erste	-3054
▁Vergnü	-3055
▁reached	-3056
par	-3057
▁kr	-3058
raid	-3059
▁six	-3060
anced	-3061
stood	-3062
▁Will	-3063
▁calm	-3064
▁prof	-3065
▁Tages	-3066
▁break	-3067
▁weder	-3068
▁sitting	-3069
▁attention	-3070
phe	-3071
ning	-3072
nten	-3073
tter	-3074
▁Män	-3075
▁fal	-3076
▁fro	-3077
regung	-3078
▁Stirn	-3079
▁doing	-3080
▁tears	-3081
▁dinner	-3082
▁exclaimed	-3083
bre	-3084
ebus	-3085
bling	-3086
▁Ital	-3087
▁Tone	-3088
▁gall	-3089
▁gute	-3090
▁prin	-3091
▁dahin	-3092
▁hinunter	-3093
ehm	-3094
you	-3095
hann	-3096
king	-3097
▁Hel	-3098
▁mann	-3099
▁breath	-3100
▁forget	-3101
▁standing	-3102
kel	-3103
ages	-3104
▁fig	-3105
cious	-3106
kannt	-3107
▁frei	-3108
▁Kraft	-3109
▁mouth	-3110
▁Seiten	-3111
▁expect	-3112
▁strong	-3113
ager	-3114
esse	-3115
pted	-3116
where	-3117
▁dafür	-3118
▁Teufel	-3119
▁raised	-3120
▁öffnete	-3121
▁speaking	-3122
▁expression	-3123
öbus	-3124
▁erf	-3125
ville	-3126
▁gele	-3127
inning	-3128
ochter	-3129
▁charm	-3130
riester	-3131
▁Person	-3132
▁afraid	-3133
▁comple	-3134
▁langsam	-3135
▁überhaupt	-3136
▁vollständig	-3137
pfe	-3138
uli	-3139
▁My	-3140
lung	-3141
unken	-3142
▁disa	-3143
▁gibt	-3144
hoebus	-3145
▁Dinge	-3146
▁horse	-3147
▁versetzte	-3148
▁är	-3149
ftig	-3150
ilfe	-3151
olle	-3152
▁bek	-3153
rible	-3154
▁sech	-3155
▁thun	-3156
essing	-3157
▁Damen	-3158
▁Kopfe	-3159
▁spoke	-3160
▁effort	-3161
ux	-3162
ähr	-3163
äus	-3164
▁Co	-3165
enty	-3166
osen	-3167
ution	-3168
wegen	-3169
▁Wirk	-3170
deacon	-3171
inuten	-3172
▁Kleid	-3173
▁sever	-3174
▁Treppe	-3175
▁furcht	-3176
▁getting	-3177
▁Priester	-3178
▁daughter	-3179
▁happened	-3180
▁natürlich	-3181
cky	-3182
üge	-3183
▁Ton	-3184
icken	-3185
otion	-3186
▁opin	-3187
blickte	-3188
▁compan	-3189
▁dadurch	-3190
▁ap	-3191
▁Rom	-3192
▁Tem	-3193
▁hon	-3194
▁ord	-3195
brach	-3196
▁Hier	-3197
▁Just	-3198
brigens	-3199
▁langen	-3200
▁trying	-3201
▁Archidi	-3202
▁quickly	-3203
▁schreck	-3204
Th	-3205
org	-3206
▁boy	-3207
▁squ	-3208
pping	-3209
▁hing	-3210
▁nahe	-3211
▁kamen	-3212
▁recog	-3213
▁Gestalt	-3214
▁understood	-3215
wie	-3216
bare	-3217
hand	-3218
hile	-3219
▁Ann	-3220
asche	-3221
field	-3222
▁trem	-3223
▁traur	-3224
▁lieber	-3225
▁weniger	-3226
▁entgegen	-3227
▁immediately	-3228
ek	-3229
jen	-3230
▁Gal	-3231
▁gaz	-3232
▁pap	-3233
aught	-3234
▁Mich	-3235
▁Ungl	-3236
▁lief	-3237
▁visit	-3238
▁change	-3239
▁living	-3240
▁glauben	-3241
▁Tod	-3242
▁cra	-3243
▁tem	-3244
itude	-3245
▁Hoff	-3246
▁ment	-3247
▁murm	-3248
▁Apothe	-3249
▁Johann	-3250
▁Minuten	-3251
irt	-3252
▁Bew	-3253
▁Fel	-3254
▁Ker	-3255
ertig	-3256
wards	-3257
▁höch	-3258
▁Recht	-3259
▁heißt	-3260
▁human	-3261
▁learn	-3262
▁certainly	-3263
▁considered	-3264
▁betrachtete	-3265
co	-3266
ped	-3267
rov	-3268
▁Nä	-3269
ilos	-3270
itel	-3271
lief	-3272
reis	-3273
▁Wer	-3274
iment	-3275
▁fore	-3276
ilosop	-3277
▁befand	-3278
▁Gedanke	-3279
▁har	-3280
▁näm	-3281
▁pri	-3282
▁year	-3283
▁Miene	-3284
▁contr	-3285
▁closed	-3286
▁streng	-3287
▁wunder	-3288
▁Tochter	-3289
▁lächelte	-3290
▁archdeacon	-3291
Do	-3292
ric	-3293
üst	-3294
Wenn	-3295
roll	-3296
▁Ing	-3297
glück	-3298
▁schm	-3299
undred	-3300
▁genau	-3301
fied	-3302
▁Nik	-3303
▁Why	-3304
▁dür	-3305
▁las	-3306
▁led	-3307
aused	-3308
▁kurz	-3309
▁past	-3310
▁vert	-3311
▁Betsy	-3312
▁Natur	-3313
▁steht	-3314
▁Bauern	-3315
ornfield	-3316
dia	-3317
urs	-3318
▁bar	-3319
▁unt	-3320
ching	-3321
ities	-3322
▁Lydia	-3323
▁bitte	-3324
▁gypsy	-3325
▁spiel	-3326
▁Himmel	-3327
▁forgot	-3328
▁slowly	-3329
▁entfern	-3330
ec	-3331
▁vö	-3332
schau	-3333
▁Sohn	-3334
reifen	-3335
▁crowd	-3336
▁silent	-3337
▁Phoebus	-3338
▁drawing	-3339
▁offenbar	-3340
▁straight	-3341
▁gesprochen	-3342
▁Ma	-3343
fahr	-3344
umed	-3345
▁fix	-3346
▁lab	-3347
▁pie	-3348
▁vag	-3349
führt	-3350
▁Zust	-3351
▁boys	-3352
▁cent	-3353
▁drew	-3354
▁pfle	-3355
▁writ	-3356
▁verst	-3357
▁Phöbus	-3358
▁freund	-3359
▁sollen	-3360
▁hundred	-3361
▁durchaus	-3362
▁Vergnügen	-3363
hte	-3364
yre	-3365
bles	-3366
side	-3367
▁Lou	-3368
▁Pfl	-3369
▁hob	-3370
▁sad	-3371
ature	-3372
▁Mühe	-3373
▁Wohn	-3374
▁prob	-3375
▁town	-3376
▁verw	-3377
ements	-3378
▁stone	-3379
▁Besuch	-3380
▁meines	-3381
▁Unglück	-3382
▁gefunden	-3383
▁difficult	-3384
zed	-3385
▁Fe	-3386
▁Wes	-3387
▁fle	-3388
▁mad	-3389
lassen	-3390
▁appear	-3391
▁subject	-3392
hme	-3393
alth	-3394
hält	-3395
ines	-3396
lang	-3397
nahm	-3398
▁ert	-3399
etter	-3400
▁Eind	-3401
▁acht	-3402
▁Darja	-3403
▁loved	-3404
▁usual	-3405
▁Christ	-3406
▁within	-3407
▁whisper	-3408
▁einander	-3409
▁verschieden	-3410
tess	-3411
▁adm	-3412
zeich	-3413
▁Coun	-3414
▁After	-3415
▁chair	-3416
▁glass	-3417
▁occup	-3418
▁zitter	-3419
ils	-3420
bten	-3421
scha	-3422
▁Gru	-3423
▁ten	-3424
▁coun	-3425
▁getan	-3426
▁warum	-3427
▁Diener	-3428
▁jedoch	-3429
▁letter	-3430
▁einzige	-3431
▁erinner	-3432
▁unmöglich	-3433
▁Alexandrowna	-3434
▁est	-3435
▁Eyre	-3436
▁Ober	-3437
▁Volk	-3438
▁inqu	-3439
▁neck	-3440
▁sehe	-3441
▁vern	-3442
aconus	-3443
▁damals	-3444
▁gesche	-3445
▁please	-3446
▁verloren	-3447
▁different	-3448
▁sometimes	-3449
by	-3450
vel	-3451
ards	-3452
ased	-3453
There	-3454
ively	-3455
▁berü	-3456
▁laut	-3457
▁Becky	-3458
▁Schwe	-3459
▁natur	-3460
▁utter	-3461
▁Leiden	-3462
▁Anblick	-3463
▁Meister	-3464
▁Geschichte	-3465
▁entgegnete	-3466
int	-3467
ßten	-3468
▁div	-3469
auber	-3470
▁Sein	-3471
▁port	-3472
▁Brust	-3473
▁fertig	-3474
▁indeed	-3475
▁sicher	-3476
bild	-3477
iebt	-3478
räul	-3479
wart	-3480
▁Grä	-3481
▁Rus	-3482
▁Spr	-3483
üttel	-3484
▁addr	-3485
▁sagt	-3486
▁show	-3487
▁exper	-3488
räulein	-3489
▁erhalten	-3490
▁Thornfield	-3491
sa	-3492
erv	-3493
ones	-3494
▁Von	-3495
lafen	-3496
▁burn	-3497
immung	-3498
▁jedes	-3499
▁corner	-3500
▁einfach	-3501
▁neither	-3502
▁trouble	-3503
▁welchen	-3504
rugg	-3505
▁hop	-3506
▁yes	-3507
ciety	-3508
▁Sinn	-3509
▁bele	-3510
▁view	-3511
▁Furcht	-3512
▁partic	-3513
▁remain	-3514
▁struck	-3515
▁respect	-3516
▁stellte	-3517
▁bekommen	-3518
▁Archidiaconus	-3519
rot	-3520
uous	-3521
▁Dom	-3522
ammen	-3523
teten	-3524
▁Trau	-3525
▁grow	-3526
▁oben	-3527
▁liked	-3528
▁meant	-3529
▁statt	-3530
▁Jahren	-3531
▁glance	-3532
▁herein	-3533
▁prince	-3534
▁Familie	-3535
▁complete	-3536
▁nächsten	-3537
▁beginning	-3538
ism	-3539
müt	-3540
arbe	-3541
ller	-3542
baren	-3543
▁Mund	-3544
▁Well	-3545
▁Nikol	-3546
▁Schne	-3547
▁Mittel	-3548
▁Worten	-3549
▁fellow	-3550
▁folgte	-3551
▁unglück	-3552
eni	-3553
ior	-3554
ony	-3555
aven	-3556
ized	-3557
vier	-3558
▁cut	-3559
aufen	-3560
▁bott	-3561
▁quar	-3562
ziehen	-3563
▁beside	-3564
▁during	-3565
▁fahren	-3566
▁smiled	-3567
▁friends	-3568
▁evidently	-3569
▁therefore	-3570
ama	-3571
aup	-3572
ickt	-3573
orses	-3574
▁Auch	-3575
▁pale	-3576
weilen	-3577
retched	-3578
▁carriage	-3579
▁remembered	-3580
▁Mon	-3581
▁THE	-3582
▁Var	-3583
igten	-3584
▁grew	-3585
▁sage	-3586
▁shad	-3587
▁jenem	-3588
▁obser	-3589
▁although	-3590
uc	-3591
cap	-3592
▁Ue	-3593
viel	-3594
▁cou	-3595
▁enc	-3596
▁mem	-3597
essel	-3598
oured	-3599
reise	-3600
▁Anst	-3601
▁etwa	-3602
▁Hilfe	-3603
▁Pferd	-3604
▁schwe	-3605
▁gingen	-3606
▁pleased	-3607
▁Schatten	-3608
IN	-3609
ole	-3610
cial	-3611
idly	-3612
iers	-3613
werk	-3614
▁Lei	-3615
▁col	-3616
▁dest	-3617
▁herr	-3618
▁hoff	-3619
▁pity	-3620
▁stri	-3621
▁Besch	-3622
▁Dienst	-3623
▁Dieser	-3624
▁führte	-3625
▁morgen	-3626
igkeiten	-3627
▁smiling	-3628
▁verstehen	-3629
zug	-3630
änge	-3631
▁Gro	-3632
▁Hal	-3633
▁Nur	-3634
▁Str	-3635
▁Thr	-3636
▁Wun	-3637
hrten	-3638
hrung	-3639
▁sweet	-3640
▁Prince	-3641
▁gering	-3642
▁manner	-3643
▁walked	-3644
▁Nachdem	-3645
▁interru	-3646
?‹	-3647
ths	-3648
ußt	-3649
heim	-3650
▁Sam	-3651
▁Sel	-3652
▁inn	-3653
▁nam	-3654
pleas	-3655
rench	-3656
▁wood	-3657
▁augen	-3658
▁unten	-3659
▁garden	-3660
▁meinte	-3661
gegangen	-3662
▁Zweifel	-3663
▁empfand	-3664
▁married	-3665
▁expected	-3666
▁versuchte	-3667
▁Erinnerung	-3668
War	-3669
mut	-3670
tra	-3671
▁Bä	-3672
fang	-3673
▁Bar	-3674
▁Zwe	-3675
▁ausge	-3676
▁French	-3677
▁Ingram	-3678
▁anders	-3679
▁recogn	-3680
▁drückte	-3681
▁minutes	-3682
▁Fräulein	-3683
An	-3684
If	-3685
ärm	-3686
äuf	-3687
atte	-3688
unkt	-3689
what	-3690
▁End	-3691
▁mor	-3692
▁nöt	-3693
▁pay	-3694
▁rid	-3695
▁wid	-3696
ängen	-3697
▁bent	-3698
▁beob	-3699
▁erfü	-3700
▁later	-3701
▁means	-3702
▁Garten	-3703
▁Männer	-3704
▁allgem	-3705
▁Eindruck	-3706
ury	-3707
van	-3708
ktor	-3709
▁sym	-3710
▁tor	-3711
▁try	-3712
athed	-3713
llten	-3714
wärts	-3715
▁Sonne	-3716
▁Stein	-3717
▁lived	-3718
▁kannst	-3719
▁finished	-3720
▁imstande	-3721
▁obgleich	-3722
ift	-3723
öpf	-3724
haus	-3725
▁Reg	-3726
▁def	-3727
igend	-3728
night	-3729
▁Erde	-3730
▁five	-3731
▁jung	-3732
▁pill	-3733
▁aufge	-3734
▁beruh	-3735
▁liegt	-3736
▁Gräfin	-3737
▁horses	-3738
▁erinnerte	-3739
▁important	-3740
kn	-3741
arf	-3742
pre	-3743
▁Cl	-3744
umpf	-3745
▁Bem	-3746
▁spl	-3747
endet	-3748
▁iron	-3749
▁floor	-3750
▁start	-3751
▁charac	-3752
▁except	-3753
▁filled	-3754
▁nature	-3755
▁völlig	-3756
schaften	-3757
▁schönen	-3758
▁seltsam	-3759
▁genommen	-3760
▁listened	-3761
▁strength	-3762
▁gentlemen	-3763
▁schließlich	-3764
We	-3765
▁Te	-3766
ices	-3767
ollen	-3768
▁With	-3769
▁sprang	-3770
▁willst	-3771
▁anderes	-3772
▁welchem	-3773
▁received	-3774
▁wiederholte	-3775
!‹	-3776
üre	-3777
▁Zw	-3778
erkt	-3779
▁giv	-3780
▁leb	-3781
anzig	-3782
onnen	-3783
seits	-3784
▁lock	-3785
▁Diana	-3786
▁reply	-3787
bringen	-3788
kannten	-3789
▁entire	-3790
gü	-3791
Wir	-3792
cow	-3793
äßt	-3794
angt	-3795
annt	-3796
ufen	-3797
▁kom	-3798
▁Ivan	-3799
▁Leni	-3800
▁dunk	-3801
▁vill	-3802
ctions	-3803
lauben	-3804
▁Every	-3805
▁alter	-3806
▁earth	-3807
▁judge	-3808
ination	-3809
▁Pferde	-3810
▁Rücken	-3811
▁Schlaf	-3812
▁Tränen	-3813
aw	-3814
▁~	-3815
ünst	-3816
▁Ach	-3817
▁med	-3818
▁mel	-3819
mlich	-3820
▁darf	-3821
▁roof	-3822
▁sold	-3823
▁Richt	-3824
▁Russi	-3825
▁mächt	-3826
▁wrong	-3827
▁Moscow	-3828
▁Wieder	-3829
▁kennen	-3830
▁unsere	-3831
ightened	-3832
▁nämlich	-3833
▁unterbrach	-3834
eper	-3835
yond	-3836
▁Ord	-3837
▁big	-3838
ident	-3839
ments	-3840
▁pret	-3841
▁ward	-3842
▁schau	-3843
▁ärger	-3844
▁covered	-3845
▁opinion	-3846
▁probably	-3847
str	-3848
▁Verb	-3849
▁Verw	-3850
▁lead	-3851
▁poss	-3852
kennen	-3853
▁Mittag	-3854
▁spirit	-3855
▁Hoffnung	-3856
▁presence	-3857
hnt	-3858
▁Kü	-3859
gere	-3860
teen	-3861
heure	-3862
owers	-3863
▁prep	-3864
▁succ	-3865
▁Schön	-3866
▁worth	-3867
▁Schuld	-3868
▁Straße	-3869
▁middle	-3870
▁captain	-3871
▁standen	-3872
▁geschehen	-3873
▁allerdings	-3874
▁wahrscheinlich	-3875
cip	-3876
mor	-3877
▁Ja	-3878
▁Sw	-3879
elten	-3880
ienen	-3881
▁arme	-3882
▁heav	-3883
▁step	-3884
▁Manne	-3885
▁satis	-3886
▁seeing	-3887
gestellt	-3888
▁Meinung	-3889
▁Gelegenheit	-3890
▁Angelegenheit	-3891
--"	-3892
eng	-3893
val	-3894
vol	-3895
frau	-3896
▁eng	-3897
▁tat	-3898
folge	-3899
irate	-3900
rächt	-3901
▁bewe	-3902
▁bild	-3903
▁chief	-3904
▁refle	-3905
prechen	-3906
▁spread	-3907
▁später	-3908
▁Empfindung	-3909
uty	-3910
ehan	-3911
▁Don	-3912
▁san	-3913
ickte	-3914
ingly	-3915
tempt	-3916
▁Mill	-3917
▁sett	-3918
▁soft	-3919
▁uner	-3920
▁stark	-3921
▁wirst	-3922
▁weißen	-3923
▁several	-3924
▁Countess	-3925
▁particular	-3926
ails	-3927
dete	-3928
isse	-3929
ören	-3930
▁Fol	-3931
▁Got	-3932
▁Leo	-3933
▁Oli	-3934
▁biß	-3935
▁fes	-3936
ublic	-3937
▁bein	-3938
▁drau	-3939
chtete	-3940
▁Franz	-3941
▁aufzu	-3942
▁dread	-3943
▁seien	-3944
▁stieß	-3945
▁umher	-3946
theless	-3947
▁Hinter	-3948
▁mensch	-3949
▁placed	-3950
▁account	-3951
▁deshalb	-3952
▁Gerichts	-3953
Sch	-3954
▁Sh	-3955
jest	-3956
oned	-3957
such	-3958
▁Bed	-3959
▁Gut	-3960
▁Sid	-3961
▁mil	-3962
onder	-3963
▁Stre	-3964
▁heil	-3965
▁sigh	-3966
▁würd	-3967
anging	-3968
ließen	-3969
▁clerk	-3970
▁const	-3971
▁fresh	-3972
▁jenes	-3973
▁suchen	-3974
▁general	-3975
▁gebracht	-3976
▁zugleich	-3977
Wo	-3978
bly	-3979
ete	-3980
atze	-3981
dien	-3982
enne	-3983
enth	-3984
setz	-3985
▁Jac	-3986
▁Mus	-3987
▁ago	-3988
▁blo	-3989
▁trä	-3990
alter	-3991
ammer	-3992
ossen	-3993
▁Lehr	-3994
▁Wind	-3995
▁frem	-3996
▁lust	-3997
▁cloth	-3998
▁neuem	-3999
▁sense	-4000
▁flüster	-4001
Come	-4002
alle	-4003
bour	-4004
eben	-4005
herr	-4006
ises	-4007
ored	-4008
scht	-4009
amber	-4010
▁ball	-4011
▁stür	-4012
▁anyone	-4013
▁former	-4014
▁schwarzen	-4015
za	-4016
que	-4017
gült	-4018
iner	-4019
mehr	-4020
▁Tur	-4021
▁sus	-4022
chmal	-4023
▁gere	-4024
▁drink	-4025
▁gloom	-4026
▁guten	-4027
▁heran	-4028
▁Finger	-4029
▁across	-4030
▁broken	-4031
▁schloß	-4032
▁unwill	-4033
ätigkeit	-4034
▁Fürsten	-4035
▁verschw	-4036
rt	-4037
su	-4038
inc	-4039
nden	-4040
ünde	-4041
▁obl	-4042
▁top	-4043
isted	-4044
▁King	-4045
▁jede	-4046
▁lean	-4047
atched	-4048
▁blood	-4049
▁wider	-4050
▁pretty	-4051
▁sobald	-4052
▁carried	-4053
▁decided	-4054
▁fingers	-4055
▁started	-4056
fr	-4057
▁Dor	-4058
▁bat	-4059
▁tie	-4060
▁Male	-4061
▁beau	-4062
▁harm	-4063
▁legs	-4064
▁warm	-4065
ancing	-4066
eshalb	-4067
▁Füßen	-4068
▁auszu	-4069
▁fixed	-4070
▁glänz	-4071
meister	-4072
▁Master	-4073
▁fallen	-4074
▁fragen	-4075
▁ladies	-4076
▁Hauptmann	-4077
das	-4078
law	-4079
▁ur	-4080
▁Fer	-4081
▁alt	-4082
clock	-4083
ustom	-4084
▁Rück	-4085
▁Verl	-4086
▁euch	-4087
▁free	-4088
▁requ	-4089
▁stop	-4090
aching	-4091
achtet	-4092
▁Bürst	-4093
▁Jehan	-4094
▁accom	-4095
▁cause	-4096
▁Schrei	-4097
▁accord	-4098
▁beyond	-4099
▁desire	-4100
▁effect	-4101
▁picture	-4102
▁proceed	-4103
▁zweiten	-4104
▁terrible	-4105
She	-4106
hof	-4107
ply	-4108
stu	-4109
zel	-4110
alda	-4111
like	-4112
▁Kle	-4113
▁mis	-4114
▁Warj	-4115
▁blue	-4116
▁deal	-4117
▁prev	-4118
▁prop	-4119
isches	-4120
terben	-4121
▁candle	-4122
▁caught	-4123
▁figure	-4124
▁zuerst	-4125
▁Gericht	-4126
▁Ordnung	-4127
▁holding	-4128
▁erkannte	-4129
▁Apotheker	-4130
üg	-4131
letz	-4132
nehm	-4133
rote	-4134
tell	-4135
ugte	-4136
▁ähn	-4137
uldig	-4138
umber	-4139
▁Weib	-4140
▁bear	-4141
tended	-4142
▁Louis	-4143
▁carry	-4144
▁einge	-4145
brochen	-4146
inander	-4147
▁Körper	-4148
▁Tische	-4149
▁Wunsch	-4150
▁sonder	-4151
▁Verhält	-4152
▁changed	-4153
▁success	-4154
▁character	-4155
▁listening	-4156
abe	-4157
ize	-4158
olf	-4159
ator	-4160
hler	-4161
enken	-4162
outed	-4163
▁Arzt	-4164
▁Beis	-4165
▁bank	-4166
▁fair	-4167
achsen	-4168
ächter	-4169
▁Inter	-4170
▁Spiel	-4171
▁sechs	-4172
▁seems	-4173
meralda	-4174
▁Moskau	-4175
▁Temple	-4176
▁belong	-4177
▁Michail	-4178
▁Stunden	-4179
▁dressed	-4180
▁forward	-4181
▁tausend	-4182
▁interess	-4183
Ist	-4184
act	-4185
die	-4186
path	-4187
▁Rue	-4188
▁shr	-4189
▁Nähe	-4190
▁Wege	-4191
▁anim	-4192
▁bare	-4193
▁entr	-4194
▁send	-4195
▁shut	-4196
führen	-4197
ounded	-4198
▁Durch	-4199
▁sieht	-4200
▁stieg	-4201
▁Gleich	-4202
▁letzte	-4203
▁recall	-4204
▁simple	-4205
▁street	-4206
▁Ansicht	-4207
▁Freunde	-4208
▁Varenka	-4209
▁anderer	-4210
▁arrived	-4211
▁impress	-4212
▁passion	-4213
▁happiness	-4214
ok	-4215
zz	-4216
hem	-4217
oly	-4218
arde	-4219
pfte	-4220
schw	-4221
▁Hin	-4222
▁Kut	-4223
▁rau	-4224
derte	-4225
duced	-4226
ugend	-4227
ümmer	-4228
▁Hals	-4229
▁eins	-4230
▁pull	-4231
assung	-4232
erence	-4233
ission	-4234
mittel	-4235
öffnet	-4236
▁third	-4237
▁bereit	-4238
▁distur	-4239
▁großer	-4240
▁showed	-4241
▁twenty	-4242
▁Straßen	-4243
▁painter	-4244
▁Wahrheit	-4245
▁conscious	-4246
Is	-4247
Der	-4248
Now	-4249
oor	-4250
rid	-4251
ases	-4252
▁Rau	-4253
▁Vie	-4254
▁Yon	-4255
▁emb	-4256
▁rap	-4257
▁sli	-4258
usion	-4259
▁Erst	-4260
▁firm	-4261
▁hind	-4262
▁says	-4263
altung	-4264
recken	-4265
▁Rouen	-4266
▁relig	-4267
▁resol	-4268
▁Mannes	-4269
▁bitter	-4270
▁Zeichen	-4271
▁besides	-4272
▁clearly	-4273
▁comfort	-4274
▁Bürstner	-4275
▁shoulders	-4276
merksamkeit	-4277
▁gewöhnlich	-4278
▁2	-4279
▁Ob	-4280
icks	-4281
inne	-4282
rift	-4283
ügen	-4284
acken	-4285
üssel	-4286
▁bird	-4287
ightly	-4288
▁bevor	-4289
▁known	-4290
▁peace	-4291
▁threw	-4292
▁verlie	-4293
▁approached	-4294
cing	-4295
opin	-4296
ries	-4297
▁Ganz	-4298
▁abzu	-4299
▁mine	-4300
▁reiz	-4301
▁oppos	-4302
▁solle	-4303
▁truth	-4304
▁liegen	-4305
▁allowed	-4306
▁despair	-4307
▁disappe	-4308
▁windows	-4309
▁Esmeralda	-4310
hü	-4311
ney	-4312
wig	-4313
erei	-4314
igem	-4315
wers	-4316
▁anx	-4317
ested	-4318
▁Bank	-4319
▁Here	-4320
▁coat	-4321
▁entw	-4322
▁loud	-4323
▁verhe	-4324
▁zerst	-4325
▁Gottes	-4326
▁asleep	-4327
gekommen	-4328
▁chamber	-4329
▁servant	-4330
▁shouted	-4331
▁Schritte	-4332
▁Stellung	-4333
▁erblickte	-4334
▁erschienen	-4335
▁Aufmerksamkeit	-4336
uhr	-4337
wel	-4338
▁ce	-4339
iche	-4340
lled	-4341
ücke	-4342
▁Gou	-4343
▁nar	-4344
hoben	-4345
losen	-4346
stead	-4347
▁Frei	-4348
▁easy	-4349
▁habt	-4350
▁burst	-4351
▁spect	-4352
▁until	-4353
▁Nikola	-4354
▁kleines	-4355
▁discover	-4356
▁richtete	-4357
▁schlecht	-4358
▁wünschte	-4359
▁zufrieden	-4360
Ihr	-4361
ina	-4362
iere	-4363
▁Min	-4364
▁box	-4365
▁hid	-4366
arily	-4367
auern	-4368
ceive	-4369
zeugt	-4370
▁cell	-4371
▁empt	-4372
▁fanc	-4373
▁road	-4374
▁self	-4375
▁teil	-4376
wendig	-4377
▁field	-4378
▁noise	-4379
▁piece	-4380
▁thick	-4381
▁Gesetz	-4382
▁selten	-4383
▁wonder	-4384
▁Richter	-4385
▁scheint	-4386
▁wartete	-4387
aded	-4388
aled	-4389
kehr	-4390
▁Low	-4391
bogen	-4392
hören	-4393
iform	-4394
▁Denn	-4395
▁phys	-4396
schied	-4397
▁sicht	-4398
▁teeth	-4399
▁trans	-4400
▁Jungen	-4401
▁leiden	-4402
▁Endlich	-4403
▁further	-4404
▁hurried	-4405
▁geblieben	-4406
ieb	-4407
oes	-4408
ots	-4409
ppy	-4410
tis	-4411
▁wü	-4412
ains	-4413
ring	-4414
älte	-4415
▁Kna	-4416
▁avo	-4417
▁smo	-4418
▁Hoch	-4419
▁didn	-4420
▁mite	-4421
ically	-4422
morrow	-4423
ollect	-4424
▁Angst	-4425
▁comes	-4426
▁girls	-4427
▁jedem	-4428
▁niedr	-4429
▁nötig	-4430
▁oblig	-4431
▁worse	-4432
▁Clopin	-4433
▁merkte	-4434
▁nearly	-4435
▁office	-4436
▁zeigen	-4437
▁Schmerz	-4438
▁feelings	-4439
ral	-4440
üng	-4441
ades	-4442
ding	-4443
weil	-4444
▁Sal	-4445
Warum	-4446
asten	-4447
ischt	-4448
▁post	-4449
setzen	-4450
vollen	-4451
▁Maler	-4452
▁angen	-4453
▁begin	-4454
▁hours	-4455
▁nurse	-4456
▁stren	-4457
▁trees	-4458
haltung	-4459
▁bisher	-4460
▁dunkel	-4461
▁kannte	-4462
▁labour	-4463
▁public	-4464
▁dagegen	-4465
▁Warjenka	-4466
▁philosop	-4467
▁miteinander	-4468
My	-4469
rag	-4470
häng	-4471
usch	-4472
▁Pal	-4473
▁Zie	-4474
▁miß	-4475
▁tot	-4476
idung	-4477
stern	-4478
▁Krie	-4479
▁Mond	-4480
▁bill	-4481
▁prov	-4482
▁stir	-4483
immers	-4484
▁Kunst	-4485
▁Macht	-4486
▁Stuhl	-4487
▁escap	-4488
▁neigh	-4489
▁weißt	-4490
heureux	-4491
▁Dunkel	-4492
▁Selbst	-4493
▁liebte	-4494
▁pressed	-4495
▁richtig	-4496
▁wollten	-4497
▁Lheureux	-4498
▁peasants	-4499
ev	-4500
lä	-4501
aub	-4502
err	-4503
kle	-4504
leg	-4505
low	-4506
zha	-4507
aged	-4508
nern	-4509
olog	-4510
▁Zus	-4511
▁ann	-4512
▁bal	-4513
▁cho	-4514
▁tea	-4515
ality	-4516
inary	-4517
▁Dach	-4518
▁Früh	-4519
▁Heil	-4520
▁Mont	-4521
▁Regen	-4522
▁grand	-4523
▁Fragen	-4524
▁intent	-4525
▁notice	-4526
▁Kapitel	-4527
▁outside	-4528
▁Yonville	-4529
▁distance	-4530
▁handsome	-4531
▁movement	-4532
▁demselben	-4533
▁derselben	-4534
▁forgotten	-4535
▁gentleman	-4536
Be	-4537
aul	-4538
hst	-4539
näd	-4540
▁Ex	-4541
iste	-4542
▁Bur	-4543
▁Nie	-4544
▁exp	-4545
▁fun	-4546
▁leg	-4547
▁pal	-4548
acher	-4549
jasch	-4550
zuste	-4551
▁Gold	-4552
▁line	-4553
▁Tante	-4554
gesehen	-4555
▁geheim	-4556
▁suffer	-4557
▁Absicht	-4558
▁matters	-4559
▁überzeugt	-4560
▁Gegenstand	-4561
oe	-4562
zeß	-4563
öse	-4564
▁XX	-4565
test	-4566
uche	-4567
▁Ves	-4568
volle	-4569
▁From	-4570
▁Glas	-4571
▁Leon	-4572
▁pock	-4573
▁seid	-4574
▁Ihrer	-4575
▁empor	-4576
▁hohen	-4577
▁spite	-4578
▁walls	-4579
▁Vorste	-4580
▁heaven	-4581
▁talked	-4582
▁bißchen	-4583
▁explain	-4584
▁deutlich	-4585
▁gewissen	-4586
▁Schönheit	-4587
dom	-4588
ues	-4589
uge	-4590
▁rü	-4591
erte	-4592
fähr	-4593
komm	-4594
lose	-4595
rite	-4596
▁hol	-4597
▁por	-4598
▁sky	-4599
anten	-4600
iegen	-4601
▁cast	-4602
▁scar	-4603
▁weak	-4604
iraten	-4605
▁Golen	-4606
▁blind	-4607
▁grass	-4608
▁perfe	-4609
▁trial	-4610
▁Charak	-4611
▁Dingen	-4612
▁caused	-4613
▁sowohl	-4614
▁Verzwei	-4615
▁knowing	-4616
▁natural	-4617
▁erzählte	-4618
▁Plötzlich	-4619
▁everybody	-4620
▁interrupted	-4621
Da	-4622
bert	-4623
▁Ehe	-4624
▁Let	-4625
▁Red	-4626
▁Swi	-4627
itect	-4628
otter	-4629
▁Wald	-4630
▁zehn	-4631
ession	-4632
uchten	-4633
▁irrit	-4634
▁knees	-4635
▁shook	-4636
▁wolle	-4637
ardinal	-4638
kürlich	-4639
▁Schule	-4640
▁seized	-4641
▁soeben	-4642
▁beinahe	-4643
▁konnten	-4644
▁sollten	-4645
▁village	-4646
▁Swijasch	-4647
▁pleasant	-4648
ms	-4649
agd	-4650
uls	-4651
▁di	-4652
▁sü	-4653
hsky	-4654
reuz	-4655
▁Mah	-4656
▁inf	-4657
▁pec	-4658
ision	-4659
ouses	-4660
utete	-4661
utung	-4662
▁Sche	-4663
▁Wand	-4664
▁mass	-4665
▁ones	-4666
▁sole	-4667
▁unha	-4668
▁Place	-4669
▁erinn	-4670
▁faßte	-4671
▁force	-4672
▁inner	-4673
▁knows	-4674
▁wären	-4675
pressed	-4676
▁object	-4677
▁English	-4678
▁passing	-4679
▁resumed	-4680
▁solcher	-4681
▁beschäftigt	-4682
,--	-4683
leh	-4684
opf	-4685
viy	-4686
Then	-4687
▁age	-4688
▁ehe	-4689
▁fet	-4690
aming	-4691
immte	-4692
maßen	-4693
viyaz	-4694
wesen	-4695
▁läßt	-4696
▁priv	-4697
▁sank	-4698
itions	-4699
▁brach	-4700
▁fortw	-4701
▁holen	-4702
▁küßte	-4703
▁shame	-4704
▁Sviyaz	-4705
▁giving	-4706
▁mention	-4707
▁geradezu	-4708
▁shoulder	-4709
▁gleichfalls	-4710
ON	-4711
bs	-4712
io	-4713
ims	-4714
well	-4715
wärt	-4716
ärte	-4717
▁krä	-4718
ckten	-4719
flung	-4720
▁city	-4721
▁educ	-4722
▁infl	-4723
▁laid	-4724
▁sens	-4725
idence	-4726
nungen	-4727
riffen	-4728
▁Peter	-4729
▁Stock	-4730
▁bound	-4731
▁ernst	-4732
▁forth	-4733
▁separ	-4734
▁Lachen	-4735
▁länger	-4736
▁regard	-4737
▁vergnü	-4738
▁Anstreng	-4739
▁contrary	-4740
▁gegangen	-4741
▁geöffnet	-4742
▁Verzweiflung	-4743
All	-4744
adi	-4745
euf	-4746
▁Sc	-4747
urer	-4748
▁dam	-4749
▁lim	-4750
▁sal	-4751
▁wit	-4752
ament	-4753
ified	-4754
▁Blut	-4755
▁entz	-4756
▁grau	-4757
▁sake	-4758
sichtig	-4759
▁affect	-4760
▁beauty	-4761
▁längst	-4762
▁mochte	-4763
▁prächt	-4764
▁secret	-4765
▁warten	-4766
▁delight	-4767
▁reading	-4768
▁trotzdem	-4769
▁architect	-4770
▁Sviyazhsky	-4771
eks	-4772
▁Gu	-4773
▁Wä	-4774
ität	-4775
raut	-4776
▁Rod	-4777
▁eat	-4778
▁fav	-4779
▁fut	-4780
alous	-4781
olphe	-4782
uliar	-4783
▁Nein	-4784
▁Rock	-4785
▁leng	-4786
▁seat	-4787
▁spät	-4788
▁viol	-4789
ftigen	-4790
ielten	-4791
reckte	-4792
▁Mauer	-4793
▁armen	-4794
▁faces	-4795
▁habit	-4796
▁lesen	-4797
▁makes	-4798
▁Bemerk	-4799
▁Prozeß	-4800
▁beheld	-4801
▁schöne	-4802
▁spring	-4803
▁gestern	-4804
▁leaving	-4805
▁machten	-4806
▁erkennen	-4807
▁peculiar	-4808
▁ziemlich	-4809
▁surprised	-4810
Ein	-4811
kte	-4812
uen	-4813
bing	-4814
olas	-4815
stes	-4816
▁Ohr	-4817
▁Spe	-4818
iegel	-4819
▁Best	-4820
▁sick	-4821
▁thin	-4822
treten	-4823
▁Lande	-4824
▁Reihe	-4825
▁Tagen	-4826
▁darum	-4827
▁green	-4828
▁heavy	-4829
▁wohin	-4830
▁rising	-4831
▁Mitleid	-4832
▁quietly	-4833
▁unangen	-4834
Lys	-4835
rib	-4836
▁Is	-4837
hend	-4838
reif	-4839
ögen	-4840
▁Sta	-4841
▁cru	-4842
▁equ	-4843
▁pun	-4844
▁var	-4845
erste	-4846
mäßig	-4847
orben	-4848
stadt	-4849
▁Dies	-4850
▁hill	-4851
▁inne	-4852
▁stup	-4853
▁Fleur	-4854
▁broke	-4855
▁geste	-4856
▁guter	-4857
▁jenen	-4858
▁uncle	-4859
gesetzt	-4860
hundert	-4861
▁Having	-4862
▁chance	-4863
▁folgen	-4864
▁strugg	-4865
▁Gouvern	-4866
▁discuss	-4867
ständlich	-4868
▁Rodolphe	-4869
▁herunter	-4870
▁Advokaten	-4871
▁flüsterte	-4872
▁fürchtete	-4873
▁questions	-4874
To	-4875
mm	-4876
anw	-4877
las	-4878
üch	-4879
▁ga	-4880
arsh	-4881
ests	-4882
ists	-4883
pfer	-4884
rows	-4885
▁Krä	-4886
▁Vas	-4887
▁fat	-4888
▁suc	-4889
▁chem	-4890
▁farm	-4891
▁fein	-4892
▁fond	-4893
▁grou	-4894
▁rain	-4895
▁week	-4896
aschen	-4897
keeper	-4898
▁heads	-4899
▁knock	-4900
merksam	-4901
richter	-4902
▁Rivers	-4903
▁ganzes	-4904
▁keiner	-4905
▁Advokat	-4906
▁succeed	-4907
▁verließ	-4908
▁Beispiel	-4909
▁Gesichte	-4910
▁remarked	-4911
▁relations	-4912
rü	-4913
Not	-4914
han	-4915
ius	-4916
rig	-4917
âte	-4918
▁Ho	-4919
▁Är	-4920
bach	-4921
ulty	-4922
uted	-4923
ortun	-4924
sache	-4925
udolf	-4926
▁Holz	-4927
▁Sold	-4928
▁drag	-4929
▁moon	-4930
mitted	-4931
▁Außer	-4932
▁cloud	-4933
▁faith	-4934
▁gehör	-4935
achtung	-4936
jenigen	-4937
▁behaup	-4938
▁length	-4939
▁memory	-4940
▁single	-4941
▁waited	-4942
▁glanced	-4943
▁pflegte	-4944
▁suppose	-4945
▁erfahren	-4946
▁Schultern	-4947
▁aufmerksam	-4948
Wer	-4949
hel	-4950
bung	-4951
ugen	-4952
▁dog	-4953
▁van	-4954
ghing	-4955
ängst	-4956
▁Knie	-4957
▁Stud	-4958
▁pick	-4959
▁vorh	-4960
denken	-4961
teilen	-4962
uments	-4963
▁Froll	-4964
▁Mitte	-4965
▁Nicht	-4966
▁Onkel	-4967
▁dicht	-4968
▁empty	-4969
▁entde	-4970
▁essen	-4971
▁Hauses	-4972
▁deinen	-4973
▁splend	-4974
▁wander	-4975
▁England	-4976
▁Zustand	-4977
▁gedacht	-4978
▁meisten	-4979
▁peasant	-4980
▁furchtbar	-4981
aby	-4982
fre	-4983
fast	-4984
pfel	-4985
▁ast	-4986
▁ehr	-4987
▁erk	-4988
▁val	-4989
neten	-4990
posed	-4991
▁Häus	-4992
▁Kauf	-4993
▁aufs	-4994
▁fern	-4995
ashion	-4996
roffen	-4997
ushing	-4998
▁Charm	-4999
▁Helen	-5000
▁Wider	-5001
▁occas	-5002
▁sahen	-5003
▁wrote	-5004
▁überr	-5005
▁Frollo	-5006
▁Rudolf	-5007
▁Schritt	-5008
▁Society	-5009
▁concern	-5010
▁meaning	-5011
▁watched	-5012
▁dasselbe	-5013
▁erwartet	-5014
▁schüttel	-5015
▁verschwand	-5016
▁[	-5017
ags	-5018
ics	-5019
ned	-5020
ève	-5021
▁Ir	-5022
▁Har	-5023
▁ash	-5024
inkel	-5025
▁Eing	-5026
▁blau	-5027
▁ears	-5028
▁hell	-5029
▁move	-5030
atever	-5031
erezha	-5032
leidet	-5033
lungen	-5034
▁Armen	-5035
▁attra	-5036
▁devil	-5037
▁extre	-5038
▁geist	-5039
▁invol	-5040
▁paper	-5041
▁wobei	-5042
▁asking	-5043
▁motion	-5044
▁Kranken	-5045
▁Möglich	-5046
▁company	-5047
▁schwieg	-5048
▁unhappy	-5049
▁Gesichts	-5050
▁Richtung	-5051
▁confused	-5052
▁Tätigkeit	-5053
▁unwillkürlich	-5054
Tis	-5055
mar	-5056
zul	-5057
----	-5058
anch	-5059
aunt	-5060
fted	-5061
pper	-5062
sequ	-5063
▁Hof	-5064
▁Off	-5065
▁Ung	-5066
▁aud	-5067
▁enj	-5068
iliar	-5069
älter	-5070
▁Bede	-5071
▁Rede	-5072
▁Schn	-5073
▁Tode	-5074
▁Wohl	-5075
mittag	-5076
stairs	-5077
▁Block	-5078
▁coach	-5079
▁kenne	-5080
▁liber	-5081
▁stair	-5082
standen	-5083
stellen	-5084
▁Anfang	-5085
▁Lowood	-5086
▁bitten	-5087
▁deiner	-5088
▁einsam	-5089
▁großes	-5090
▁indiff	-5091
▁myster	-5092
gelassen	-5093
▁Besides	-5094
▁moments	-5095
▁zurecht	-5096
▁außerord	-5097
▁Charakter	-5098
▁fortwährend	-5099
uhe	-5100
Mein	-5101
erie	-5102
itet	-5103
ovna	-5104
▁Mik	-5105
hafte	-5106
ützen	-5107
▁Frem	-5108
▁Lieb	-5109
▁shar	-5110
lovsky	-5111
▁bread	-5112
▁guard	-5113
▁sorry	-5114
▁tired	-5115
▁Bürger	-5116
▁besten	-5117
▁bright	-5118
▁demand	-5119
▁future	-5120
▁führen	-5121
▁gemein	-5122
▁helfen	-5123
▁setzen	-5124
▁Ljewins	-5125
▁finster	-5126
▁Geschäft	-5127
▁laughing	-5128
▁surprise	-5129
▁vermochte	-5130
▁Ed	-5131
▁Pa	-5132
▁na	-5133
cent	-5134
gele	-5135
hung	-5136
ians	-5137
itzt	-5138
onne	-5139
uish	-5140
weis	-5141
öpfe	-5142
▁Dam	-5143
▁Les	-5144
▁Per	-5145
▁bas	-5146
▁pav	-5147
▁übr	-5148
cient	-5149
udwig	-5150
▁Fest	-5151
▁fröh	-5152
▁wide	-5153
finden	-5154
▁circum	-5155
▁jemals	-5156
▁kehrte	-5157
▁remark	-5158
▁running	-5159
▁settled	-5160
▁gefallen	-5161
▁carefully	-5162
▁whispered	-5163
▁geschlossen	-5164
Mr	-5165
St	-5166
hay	-5167
nat	-5168
▁"'	-5169
▁Ro	-5170
cked	-5171
olue	-5172
uren	-5173
▁Geh	-5174
▁Sor	-5175
▁ain	-5176
▁pen	-5177
▁une	-5178
allen	-5179
angte	-5180
eihen	-5181
light	-5182
▁Only	-5183
▁Vorh	-5184
▁Weil	-5185
▁erhe	-5186
▁errö	-5187
▁leid	-5188
▁reck	-5189
ändern	-5190
▁Never	-5191
▁Schle	-5192
▁hinge	-5193
▁study	-5194
itation	-5195
▁Mikhay	-5196
▁gather	-5197
▁simply	-5198
zwischen	-5199
▁fürchte	-5200
▁reichte	-5201
▁schwarz	-5202
▁Schulter	-5203
▁einzigen	-5204
▁entirely	-5205
▁marriage	-5206
▁Charmolue	-5207
▁Interesse	-5208
▁Veslovsky	-5209
▁difficulty	-5210
▁frightened	-5211
▁Swijaschski	-5212
AR	-5213
ipp	-5214
aber	-5215
ingt	-5216
look	-5217
pers	-5218
▁Pil	-5219
▁err	-5220
anzös	-5221
boden	-5222
leben	-5223
tsein	-5224
▁Lust	-5225
▁Tour	-5226
▁Vert	-5227
▁poet	-5228
▁sear	-5229
▁Brock	-5230
▁angry	-5231
▁grace	-5232
▁krank	-5233
drücken	-5234
icholas	-5235
▁Königs	-5236
▁Ludwig	-5237
▁Wissen	-5238
▁danger	-5239
▁gewalt	-5240
▁minute	-5241
▁tragen	-5242
▁Pflicht	-5243
▁ergriff	-5244
▁pointed	-5245
▁sterben	-5246
▁zurückzu	-5247
▁Schweigen	-5248
▁afterwards	-5249
ives	-5250
ques	-5251
schn	-5252
äste	-5253
▁Kan	-5254
▁Rat	-5255
▁bur	-5256
order	-5257
▁Gang	-5258
▁Komm	-5259
▁heim	-5260
▁schn	-5261
▁situ	-5262
▁surr	-5263
forder	-5264
ighted	-5265
ounced	-5266
▁Ohren	-5267
▁Sonnt	-5268
▁These	-5269
▁build	-5270
▁einzu	-5271
▁enjoy	-5272
▁frown	-5273
▁Blumen	-5274
▁drehte	-5275
▁mitten	-5276
▁moving	-5277
▁narrow	-5278
gebracht	-5279
▁Gefühle	-5280
▁meeting	-5281
▁Geräusch	-5282
▁Stimmung	-5283
▁acquaint	-5284
▁hindurch	-5285
▁occupied	-5286
onstantine	-5287
▁Untersuch	-5288
Als	-5289
ilf	-5290
iny	-5291
por	-5292
ison	-5293
same	-5294
▁Tit	-5295
amten	-5296
attle	-5297
aunen	-5298
istan	-5299
letzt	-5300
oming	-5301
▁Thrä	-5302
▁dick	-5303
▁goat	-5304
▁note	-5305
▁rein	-5306
▁tort	-5307
▁wore	-5308
henden	-5309
üchtig	-5310
▁Annas	-5311
▁hinab	-5312
▁komme	-5313
▁lagen	-5314
▁spent	-5315
lehurst	-5316
unehmen	-5317
▁Dieses	-5318
▁health	-5319
▁houses	-5320
▁Entschl	-5321
▁Serezha	-5322
▁bemerkt	-5323
▁französ	-5324
▁näherte	-5325
▁serious	-5326
▁walking	-5327
▁Erregung	-5328
▁Nicholas	-5329
▁Oblonski	-5330
▁entfernt	-5331
▁verstehe	-5332
▁Mikhaylov	-5333
▁following	-5334
▁Möglichkeit	-5335
▁Lö	-5336
Jane	-5337
case	-5338
hnen	-5339
lage	-5340
ären	-5341
▁sag	-5342
▁sle	-5343
▁tut	-5344
eilen	-5345
ieten	-5346
licht	-5347
orous	-5348
▁Schm	-5349
▁duty	-5350
▁früh	-5351
▁Neben	-5352
▁delic	-5353
▁denke	-5354
▁extra	-5355
▁occur	-5356
▁thank	-5357
attered	-5358
▁Bezieh	-5359
▁common	-5360
▁scharf	-5361
▁Herzens	-5362
▁forgive	-5363
▁obliged	-5364
▁erzählen	-5365
▁vielmehr	-5366
▁Aufregung	-5367
▁direction	-5368
▁vorhanden	-5369
▁Geistliche	-5370
▁interested	-5371
▁verstanden	-5372
▁Brocklehurst	-5373
pit	-5374
ron	-5375
zog	-5376
▁By	-5377
They	-5378
folg	-5379
mack	-5380
äude	-5381
▁pet	-5382
itete	-5383
▁died	-5384
▁miss	-5385
▁müde	-5386
▁pack	-5387
▁werd	-5388
lichem	-5389
▁Eigen	-5390
▁Mason	-5391
▁conne	-5392
▁grown	-5393
▁obwohl	-5394
▁kleiner	-5395
▁unpleas	-5396
▁charming	-5397
▁Frühstück	-5398
bet	-5399
▁Sä	-5400
anqu	-5401
uden	-5402
umph	-5403
▁Den	-5404
▁Eif	-5405
▁Zug	-5406
▁eif	-5407
▁pop	-5408
▁rot	-5409
hielt	-5410
ledge	-5411
legte	-5412
▁Reit	-5413
▁hide	-5414
▁yell	-5415
äglich	-5416
▁Ihren	-5417
▁angel	-5418
▁Herzog	-5419
▁Sonnen	-5420
▁breast	-5421
▁eigene	-5422
▁follow	-5423
▁verfol	-5424
▁winter	-5425
▁wouldn	-5426
esterday	-5427
▁Grubach	-5428
▁However	-5429
▁chemist	-5430
▁instead	-5431
▁Kaufmann	-5432
▁gehalten	-5433
▁Michailow	-5434
▁Schrecken	-5435
▁antworten	-5436
',	-5437
ids	-5438
pft	-5439
sie	-5440
öst	-5441
▁Go	-5442
▁Je	-5443
▁Wa	-5444
eier	-5445
eres	-5446
rich	-5447
zess	-5448
▁Met	-5449
▁Tor	-5450
▁cat	-5451
▁hos	-5452
▁kit	-5453
▁sum	-5454
aters	-5455
ernen	-5456
▁Dank	-5457
▁Dmit	-5458
▁coff	-5459
▁ener	-5460
▁erwä	-5461
▁gebe	-5462
▁ring	-5463
▁verk	-5464
▁Kamin	-5465
▁Reise	-5466
▁clean	-5467
▁lower	-5468
▁music	-5469
▁Schaus	-5470
▁Weslow	-5471
▁forced	-5472
▁formed	-5473
▁lachte	-5474
▁nannte	-5475
▁reader	-5476
▁Nikolai	-5477
▁Schwier	-5478
▁kitchen	-5479
▁überall	-5480
▁experien	-5481
▁breakfast	-5482
▁Constantine	-5483
mn	-5484
bat	-5485
wen	-5486
acle	-5487
alen	-5488
bern	-5489
gust	-5490
rieb	-5491
ängt	-5492
ühte	-5493
▁Som	-5494
cited	-5495
▁band	-5496
▁desc	-5497
▁tall	-5498
▁Ueber	-5499
▁Warum	-5500
▁begun	-5501
▁besaß	-5502
▁gazed	-5503
▁marry	-5504
▁plain	-5505
▁repro	-5506
▁rings	-5507
▁stock	-5508
▁wagte	-5509
▁Leuten	-5510
▁Sicher	-5511
▁advant	-5512
▁dürfen	-5513
▁kissed	-5514
▁unable	-5515
▁Versuch	-5516
▁erhoben	-5517
▁Gegenwart	-5518
▁completely	-5519
▁impression	-5520
▁disappeared	-5521
▁Wirklichkeit	-5522
▁entschlossen	-5523
irm	-5524
reat	-5525
ätze	-5526
▁anf	-5527
arren	-5528
lling	-5529
nahme	-5530
ächer	-5531
▁Dorf	-5532
▁Ecke	-5533
▁Mama	-5534
▁Verm	-5535
▁cart	-5536
▁denk	-5537
▁erwe	-5538
▁gewä	-5539
▁häuf	-5540
▁jump	-5541
finite	-5542
schuld	-5543
▁Still	-5544
▁apart	-5545
▁drawn	-5546
ungslos	-5547
zwungen	-5548
▁Grunde	-5549
▁sitzen	-5550
▁einigen	-5551
▁flowers	-5552
▁fortune	-5553
▁jealous	-5554
▁letters	-5555
▁princip	-5556
▁putting	-5557
▁service	-5558
▁believed	-5559
▁manchmal	-5560
▁zurückge	-5561
▁Alexander	-5562
▁stretched	-5563
▁Wirtschaft	-5564
▁schüttelte	-5565
▁Unterhaltung	-5566
cks	-5567
▁Hü	-5568
oose	-5569
▁Ist	-5570
▁häß	-5571
indet	-5572
ämmer	-5573
▁Fort	-5574
▁Füße	-5575
▁Some	-5576
▁mach	-5577
▁seuf	-5578
▁wann	-5579
▁Châte	-5580
▁Stahl	-5581
▁Weile	-5582
▁admir	-5583
▁bemer	-5584
▁class	-5585
▁concl	-5586
▁looks	-5587
ußtsein	-5588
▁commun	-5589
▁explan	-5590
▁golden	-5591
▁hübsch	-5592
▁merely	-5593
▁spoken	-5594
schlagen	-5595
▁Tristan	-5596
▁Umständ	-5597
▁fashion	-5598
▁Verstand	-5599
▁condition	-5600
do	-5601
Don	-5602
Who	-5603
bau	-5604
inct	-5605
läss	-5606
▁Yes	-5607
▁dim	-5608
▁fif	-5609
▁lit	-5610
▁pit	-5611
▁äuß	-5612
orted	-5613
▁Ange	-5614
▁Form	-5615
▁eleg	-5616
ändert	-5617
▁Ihrem	-5618
▁Traum	-5619
▁early	-5620
▁fault	-5621
▁intro	-5622
▁schol	-5623
▁unauf	-5624
irektor	-5625
oiselle	-5626
▁bottom	-5627
▁double	-5628
▁gethan	-5629
▁heftig	-5630
▁tender	-5631
▁Nachbar	-5632
▁Univers	-5633
▁leaning	-5634
▁traurig	-5635
▁Iwanowna	-5636
▁bestimmt	-5637
▁opportun	-5638
▁opposite	-5639
▁suffering	-5640
Se	-5641
ays	-5642
mas	-5643
urf	-5644
▁XI	-5645
come	-5646
gefü	-5647
hood	-5648
llos	-5649
orth	-5650
uern	-5651
▁Neu	-5652
▁Tat	-5653
▁gle	-5654
▁wär	-5655
ected	-5656
kehrt	-5657
schew	-5658
theil	-5659
▁Bour	-5660
▁amid	-5661
▁exec	-5662
▁gefü	-5663
▁sorg	-5664
▁thir	-5665
▁traf	-5666
▁zärt	-5667
ischte	-5668
ishing	-5669
rocken	-5670
▁Eisen	-5671
▁Georg	-5672
▁Glanz	-5673
▁Meine	-5674
▁Polly	-5675
▁Schwä	-5676
▁Ziege	-5677
▁appar	-5678
▁below	-5679
▁books	-5680
▁broad	-5681
▁eight	-5682
▁starr	-5683
▁throw	-5684
▁tower	-5685
▁Gewalt	-5686
▁Gewohn	-5687
▁nennen	-5688
▁number	-5689
▁square	-5690
▁stupid	-5691
ständnis	-5692
▁Arbeits	-5693
▁Glauben	-5694
▁affairs	-5695
▁draußen	-5696
▁laughed	-5697
▁sympath	-5698
▁uttered	-5699
▁Kutscher	-5700
▁circumst	-5701
▁darkness	-5702
▁laughter	-5703
▁official	-5704
▁prepared	-5705
mt	-5706
kes	-5707
pet	-5708
▁üb	-5709
denk	-5710
stür	-5711
utet	-5712
▁Mil	-5713
▁arg	-5714
Where	-5715
▁Aben	-5716
▁Brie	-5717
▁Fein	-5718
▁Tell	-5719
▁Vier	-5720
▁gesp	-5721
▁kalt	-5722
▁news	-5723
▁none	-5724
▁shop	-5725
haften	-5726
kehren	-5727
locken	-5728
▁Grève	-5729
▁Parte	-5730
▁Zelle	-5731
▁eilig	-5732
▁enorm	-5733
▁saßen	-5734
▁seven	-5735
▁Coppen	-5736
▁Einzel	-5737
▁persön	-5738
▁Zukunft	-5739
▁finally	-5740
▁instant	-5741
▁schrieb	-5742
▁familiar	-5743
▁fürchter	-5744
▁mistress	-5745
▁stranger	-5746
▁notwendig	-5747
▁Herrschaft	-5748
▁unpleasant	-5749
.)	-5750
daß	-5751
how	-5752
äum	-5753
▁Kä	-5754
▁Tö	-5755
klär	-5756
oman	-5757
oved	-5758
rade	-5759
rech	-5760
reut	-5761
thor	-5762
▁Bin	-5763
▁Kor	-5764
▁Las	-5765
▁Wür	-5766
▁amb	-5767
▁grü	-5768
▁neg	-5769
▁row	-5770
etten	-5771
iesen	-5772
jewna	-5773
ünden	-5774
▁Heim	-5775
▁Pier	-5776
▁abge	-5777
▁cost	-5778
▁gnäd	-5779
▁hate	-5780
▁sang	-5781
▁susp	-5782
fällig	-5783
iratet	-5784
zeitig	-5785
▁agree	-5786
▁andre	-5787
▁aware	-5788
▁shout	-5789
▁finger	-5790
▁gazing	-5791
▁horror	-5792
▁inform	-5793
▁shadow	-5794
▁silver	-5795
▁summer	-5796
zunehmen	-5797
▁Russian	-5798
▁offered	-5799
▁Zusammen	-5800
▁accompan	-5801
▁schlafen	-5802
lichkeiten	-5803
▁Bedeutung	-5804
▁gerichtet	-5805
▁geschrieben	-5806
.]	-5807
jo	-5808
hns	-5809
▁Wh	-5810
▁lä	-5811
Dann	-5812
kten	-5813
wegs	-5814
▁Häl	-5815
▁Mut	-5816
▁bos	-5817
itzer	-5818
▁eint	-5819
▁path	-5820
▁tong	-5821
auerte	-5822
iently	-5823
▁catch	-5824
▁ebens	-5825
▁giebt	-5826
▁höher	-5827
▁mögen	-5828
▁Mahiet	-5829
▁Winkel	-5830
▁bleich	-5831
▁derart	-5832
▁einzel	-5833
▁reckon	-5834
▁Begriff	-5835
▁Gedächt	-5836
▁Kleider	-5837
▁Schicks	-5838
▁bekannt	-5839
▁hearing	-5840
▁writing	-5841
▁written	-5842
▁übrigen	-5843
▁Coppenole	-5844
▁Gegenteil	-5845
▁education	-5846
▁importance	-5847
mü	-5848
ali	-5849
mäh	-5850
set	-5851
▁Fä	-5852
blei	-5853
cely	-5854
fiel	-5855
iven	-5856
seit	-5857
uchs	-5858
ände	-5859
▁Tau	-5860
▁inj	-5861
▁non	-5862
actly	-5863
locke	-5864
ories	-5865
schlä	-5866
▁Bein	-5867
▁Bert	-5868
▁Name	-5869
▁dull	-5870
▁grey	-5871
▁inte	-5872
▁nerv	-5873
▁wert	-5874
▁conce	-5875
▁divor	-5876
▁grave	-5877
▁impat	-5878
istence	-5879
sichten	-5880
▁pocket	-5881
▁seated	-5882
▁tranqu	-5883
▁Kindern	-5884
▁touched	-5885
▁unserer	-5886
▁zwanzig	-5887
emoiselle	-5888
▁enormous	-5889
▁occasion	-5890
▁sichtbar	-5891
▁Überzeug	-5892
wirtschaft	-5893
▁Weslowski	-5894
▁Bewegungen	-5895
▁Verhältnis	-5896
▁namentlich	-5897
Un	-5898
oc	-5899
▁ö	-5900
aur	-5901
mte	-5902
tle	-5903
▁Na	-5904
quem	-5905
yers	-5906
▁Ern	-5907
▁Lau	-5908
▁Pol	-5909
▁Que	-5910
▁ble	-5911
▁fly	-5912
itted	-5913
right	-5914
ugier	-5915
▁Alte	-5916
▁Tepp	-5917
▁brow	-5918
▁dare	-5919
▁incl	-5920
▁paid	-5921
▁spar	-5922
erness	-5923
▁Anspr	-5924
▁Junge	-5925
▁Trotz	-5926
▁allow	-5927
▁bowed	-5928
▁chest	-5929
▁einst	-5930
▁rasch	-5931
▁write	-5932
▁Geheim	-5933
▁feared	-5934
▁leaves	-5935
▁mußten	-5936
▁curtain	-5937
▁einiger	-5938
▁entsetz	-5939
▁involunt	-5940
▁Schlüssel	-5941
▁yesterday	-5942
▁Schließlich	-5943
con	-5944
ßig	-5945
oura	-5946
rupt	-5947
vert	-5948
ähne	-5949
ösen	-5950
üben	-5951
▁Col	-5952
▁Hem	-5953
▁Ide	-5954
▁key	-5955
ables	-5956
▁Noch	-5957
▁hist	-5958
▁mußt	-5959
▁russ	-5960
annten	-5961
▁Felic	-5962
▁Kreuz	-5963
▁Leser	-5964
▁doors	-5965
▁lying	-5966
▁reich	-5967
▁story	-5968
▁yield	-5969
▁latter	-5970
▁majest	-5971
▁ungehe	-5972
▁zweite	-5973
▁Italien	-5974
▁Königin	-5975
▁clothes	-5976
▁excited	-5977
▁opening	-5978
▁schlief	-5979
▁Erschein	-5980
▁erklärte	-5981
▁slightly	-5982
▁whatever	-5983
▁ärgerlich	-5984
▁Alexandrov	-5985
▁schweigend	-5986
va	-5987
Tom	-5988
bon	-5989
ruh	-5990
▁ta	-5991
ales	-5992
orte	-5993
then	-5994
▁Bal	-5995
▁Get	-5996
▁Rub	-5997
▁liv	-5998
▁ras	-5999
▁unb	-6000
asons	-6001
▁Atem	-6002
▁Fing	-6003
▁Sitz	-6004
▁dank	-6005
▁host	-6006
▁Musik	-6007
▁Offiz	-6008
▁absol	-6009
▁begle	-6010
▁erlau	-6011
▁äußer	-6012
▁Alexis	-6013
▁Bücher	-6014
▁Potter	-6015
▁Sachen	-6016
▁kümmer	-6017
▁regret	-6018
▁voraus	-6019
▁willen	-6020
▁hundert	-6021
▁verwand	-6022
▁Freiheit	-6023
▁allerlei	-6024
▁creature	-6025
▁forehead	-6026
▁indessen	-6027
▁schienen	-6028
haftigkeit	-6029
▁presented	-6030
baz	-6031
des	-6032
erz	-6033
ipe	-6034
rik	-6035
she	-6036
▁Rö	-6037
asov	-6038
road	-6039
▁Ere	-6040
▁Hex	-6041
▁Lin	-6042
▁dur	-6043
ardon	-6044
haben	-6045
iting	-6046
platz	-6047
spiel	-6048
ändig	-6049
▁Bahn	-6050
▁Scht	-6051
▁Sund	-6052
▁arbe	-6053
▁fold	-6054
▁froh	-6055
▁furn	-6056
▁herz	-6057
▁mere	-6058
▁qual	-6059
inated	-6060
▁Ferne	-6061
▁Frank	-6062
▁Krank	-6063
▁Laska	-6064
▁absch	-6065
▁compl	-6066
▁condu	-6067
▁fetch	-6068
▁influ	-6069
▁mache	-6070
▁müßte	-6071
▁vague	-6072
▁ängst	-6073
ächlich	-6074
▁Kittys	-6075
▁Knaben	-6076
▁Zauber	-6077
▁eigent	-6078
▁gently	-6079
▁lifted	-6080
▁needed	-6081
▁traten	-6082
scherbaz	-6083
▁Haltung	-6084
▁Kirchen	-6085
▁Ivanovna	-6086
▁angenehm	-6087
▁entrance	-6088
▁murmelte	-6089
▁Scheidung	-6090
▁schreiben	-6091
▁Bewußtsein	-6092
▁Schauspiel	-6093
▁augenblick	-6094
▁vollkommen	-6095
▁vorsichtig	-6096
▁unglücklich	-6097
▁Schtscherbaz	-6098
bot	-6099
gan	-6100
öße	-6101
cker	-6102
ools	-6103
wirr	-6104
wise	-6105
zähl	-6106
ütze	-6107
▁San	-6108
▁Vog	-6109
▁hot	-6110
angel	-6111
swürd	-6112
▁Baum	-6113
▁Jagd	-6114
▁Post	-6115
▁Werk	-6116
▁nose	-6117
▁purp	-6118
▁abend	-6119
▁avoid	-6120
▁bekam	-6121
▁frequ	-6122
▁month	-6123
▁river	-6124
▁schob	-6125
▁stolz	-6126
▁verli	-6127
▁youth	-6128
▁Fehler	-6129
▁Schild	-6130
▁Sommer	-6131
▁attack	-6132
▁düster	-6133
▁größer	-6134
▁rushed	-6135
▁brauche	-6136
▁erzählt	-6137
▁gallery	-6138
▁infolge	-6139
▁schwach	-6140
▁spielen	-6141
▁stellen	-6142
▁wishing	-6143
▁Wronskis	-6144
▁bemerken	-6145
▁jedesmal	-6146
▁observed	-6147
▁pavement	-6148
▁existence	-6149
▁experienced	-6150
▁opportunity	-6151
Let	-6152
ape	-6153
imp	-6154
tte	-6155
ätz	-6156
öre	-6157
▁Et	-6158
▁La	-6159
▁Mö	-6160
▁id	-6161
▁pu	-6162
aked	-6163
eile	-6164
ivil	-6165
oots	-6166
oped	-6167
ulen	-6168
with	-6169
▁Can	-6170
▁Wel	-6171
▁elb	-6172
▁ign	-6173
▁kla	-6174
▁sla	-6175
enkte	-6176
ießen	-6177
rated	-6178
ument	-6179
▁Nase	-6180
▁baby	-6181
▁disp	-6182
▁nice	-6183
▁wein	-6184
fortun	-6185
▁eilte	-6186
▁pride	-6187
zusehen	-6188
▁Wunder	-6189
▁ashamed	-6190
▁exactly	-6191
▁Soldaten	-6192
▁unaufhör	-6193
geschlagen	-6194
▁freundlich	-6195
▁Vorstellung	-6196
▁auseinander	-6197
EN	-6198
—"	-6199
asm	-6200
het	-6201
ött	-6202
oßen	-6203
ping	-6204
räng	-6205
zust	-6206
▁Oud	-6207
▁unw	-6208
Nicht	-6209
annah	-6210
imate	-6211
teilt	-6212
udder	-6213
ächst	-6214
▁Prof	-6215
▁agre	-6216
▁brid	-6217
▁nine	-6218
atures	-6219
hafter	-6220
haftig	-6221
jenige	-6222
reißen	-6223
▁Gates	-6224
▁Sinne	-6225
▁Zweck	-6226
▁anger	-6227
▁langu	-6228
▁possi	-6229
▁proud	-6230
▁roten	-6231
ishment	-6232
▁Winter	-6233
▁circle	-6234
▁redete	-6235
▁result	-6236
▁sieben	-6237
▁tiefer	-6238
▁vielen	-6239
▁yellow	-6240
▁Wohnung	-6241
▁schmerz	-6242
▁ähnlich	-6243
▁Außerdem	-6244
▁dieselbe	-6245
▁director	-6246
▁erstaunt	-6247
▁promised	-6248
▁ungefähr	-6249
▁übrigens	-6250
▁Gateshead	-6251
▁trembling	-6252
▁Dunkelheit	-6253
▁Anstrengung	-6254
▁businessman	-6255
▁schrecklich	-6256
▁Überzeugung	-6257
▁architecture	-6258
▁außerordentlich	-6259
ams	-6260
aux	-6261
hie	-6262
ißen	-6263
wing	-6264
▁Car	-6265
▁Frü	-6266
▁Wol	-6267
▁cup	-6268
▁unn	-6269
▁vol	-6270
agten	-6271
arted	-6272
hause	-6273
itary	-6274
ously	-6275
ütter	-6276
▁Befe	-6277
▁Brot	-6278
▁Doch	-6279
▁Gatt	-6280
▁Hund	-6281
▁More	-6282
▁chim	-6283
▁conv	-6284
▁grad	-6285
▁hurt	-6286
▁jour	-6287
▁meas	-6288
▁neun	-6289
▁repr	-6290
▁spot	-6291
▁tend	-6292
diener	-6293
liegen	-6294
schlag	-6295
▁Gäste	-6296
▁Roman	-6297
▁aston	-6298
▁crown	-6299
▁dared	-6300
▁hurry	-6301
mählich	-6302
underte	-6303
▁gloomy	-6304
▁kurzen	-6305
▁Sprache	-6306
▁Thränen	-6307
▁Verwand	-6308
▁Wirkung	-6309
▁disting	-6310
▁falling	-6311
▁shudder	-6312
legenheit	-6313
▁wünschen	-6314
▁ebenfalls	-6315
▁expressed	-6316
▁situation	-6317
▁appearance	-6318
▁Einzelheiten	-6319
Of	-6320
abl	-6321
bew	-6322
lin	-6323
win	-6324
Good	-6325
erer	-6326
ivid	-6327
osed	-6328
satz	-6329
umme	-6330
▁Eur	-6331
▁Wit	-6332
▁dün	-6333
▁unf	-6334
▁vex	-6335
hörte	-6336
▁Groß	-6337
▁Serp	-6338
▁Span	-6339
▁diss	-6340
▁klop	-6341
▁möge	-6342
▁pein	-6343
▁vent	-6344
▁wine	-6345
▁Coict	-6346
▁Stand	-6347
▁Sturm	-6348
▁While	-6349
▁Woche	-6350
▁group	-6351
▁midst	-6352
▁pursu	-6353
▁richt	-6354
▁touch	-6355
▁train	-6356
▁weiße	-6357
erinnen	-6358
▁France	-6359
▁Spitze	-6360
▁ließen	-6361
▁months	-6362
▁schuld	-6363
▁towers	-6364
▁vorbei	-6365
gleichen	-6366
▁dennoch	-6367
▁details	-6368
▁gewisse	-6369
▁größten	-6370
▁könnten	-6371
sichtlich	-6372
zufrieden	-6373
▁Thatcher	-6374
▁Zwischen	-6375
▁scarcely	-6376
▁somewhat	-6377
▁affection	-6378
▁staircase	-6379
▁Schwestern	-6380
ech	-6381
laß	-6382
atre	-6383
dies	-6384
gypt	-6385
oben	-6386
rily	-6387
zahl	-6388
▁Bou	-6389
▁Jed	-6390
▁Lam	-6391
▁Ort	-6392
▁Tie	-6393
▁Tra	-6394
anach	-6395
besch	-6396
hüter	-6397
icing	-6398
obald	-6399
ridor	-6400
üssen	-6401
▁Auff	-6402
▁Guts	-6403
▁gänz	-6404
▁lack	-6405
▁resp	-6406
▁tele	-6407
gültig	-6408
ichtes	-6409
stehen	-6410
▁Thurm	-6411
▁cheer	-6412
▁Kummer	-6413
▁ceased	-6414
▁pushed	-6415
▁sought	-6416
▁soviel	-6417
▁stairs	-6418
▁voices	-6419
athedral	-6420
▁consequ	-6421
▁divorce	-6422
▁learned	-6423
▁trinken	-6424
losigkeit	-6425
▁Mahiette	-6426
▁servants	-6427
▁sogleich	-6428
▁sprachen	-6429
▁streckte	-6430
▁Bemerkung	-6431
▁Entschluß	-6432
▁influence	-6433
▁angefangen	-6434
▁Mittagessen	-6435
abb	-6436
Also	-6437
atis	-6438
coat	-6439
herz	-6440
iele	-6441
igne	-6442
phon	-6443
rate	-6444
tens	-6445
▁ach	-6446
▁erl	-6447
▁fas	-6448
▁gay	-6449
▁mut	-6450
▁sea	-6451
▁tum	-6452
hlten	-6453
rückt	-6454
▁Jung	-6455
▁Kaff	-6456
▁Lärm	-6457
▁aunt	-6458
▁fool	-6459
▁inno	-6460
▁save	-6461
▁snow	-6462
itable	-6463
ressed	-6464
▁Beine	-6465
▁drive	-6466
▁incre	-6467
▁lebte	-6468
▁mount	-6469
▁shone	-6470
brechen	-6471
mädchen	-6472
verness	-6473
▁Eltern	-6474
▁Wochen	-6475
▁beugte	-6476
▁fühlen	-6477
▁pulled	-6478
▁sagten	-6479
▁solemn	-6480
▁terror	-6481
▁Olivier	-6482
▁Oudarde	-6483
▁bildete	-6484
▁hanging	-6485
▁hierher	-6486
▁imagine	-6487
▁lebhaft	-6488
▁rechten	-6489
▁Weilchen	-6490
▁deswegen	-6491
▁dreadful	-6492
▁disturbed	-6493
▁presently	-6494
▁Verständnis	-6495
yr	-6496
acy	-6497
log	-6498
now	-6499
zur	-6500
üss	-6501
▁sy	-6502
aste	-6503
eien	-6504
erem	-6505
führ	-6506
rick	-6507
▁bon	-6508
ellen	-6509
reien	-6510
▁Chor	-6511
▁Last	-6512
▁Wein	-6513
▁ease	-6514
▁grat	-6515
▁lamp	-6516
▁lose	-6517
▁ober	-6518
▁tear	-6519
ereien	-6520
willen	-6521
▁Agath	-6522
▁Scham	-6523
▁Somet	-6524
▁begeg	-6525
▁party	-6526
▁scene	-6527
▁unbed	-6528
▁übrig	-6529
teilung	-6530
zehnten	-6531
▁Sessel	-6532
▁abroad	-6533
▁ausges	-6534
▁author	-6535
▁behand	-6536
▁height	-6537
▁strang	-6538
▁suffic	-6539
▁geführt	-6540
▁playing	-6541
▁spirits	-6542
▁station	-6543
▁triumph	-6544
▁Coictier	-6545
▁brauchte	-6546
▁einziges	-6547
▁friendly	-6548
▁inquired	-6549
▁pointing	-6550
▁splendid	-6551
▁vorwärts	-6552
▁watching	-6553
▁according	-6554
▁erwartete	-6555
▁geheimnis	-6556
ED	-6557
wh	-6558
isk	-6559
▁Su	-6560
aced	-6561
barr	-6562
elen	-6563
illy	-6564
irat	-6565
jali	-6566
raph	-6567
schm	-6568
teid	-6569
usse	-6570
▁Erw	-6571
▁rou	-6572
▁wed	-6573
ative	-6574
kunst	-6575
osten	-6576
reden	-6577
ähnen	-6578
▁Antl	-6579
▁Ding	-6580
▁Gras	-6581
▁bold	-6582
▁ming	-6583
▁virt	-6584
avasov	-6585
▁Bitte	-6586
▁Essen	-6587
▁ideas	-6588
▁sides	-6589
▁stern	-6590
▁älter	-6591
barrass	-6592
enntnis	-6593
▁Erklär	-6594
▁Gemein	-6595
▁Hälfte	-6596
▁Zeiten	-6597
▁affair	-6598
▁easily	-6599
▁gewiss	-6600
▁hängen	-6601
▁interv	-6602
▁thrust	-6603
▁Blicken	-6604
▁Stimmen	-6605
▁ancient	-6606
▁gelegen	-6607
▁growing	-6608
▁painful	-6609
▁private	-6610
▁uniform	-6611
▁weshalb	-6612
▁working	-6613
wesenheit	-6614
▁Personen	-6615
▁arranged	-6616
▁contempt	-6617
▁erklären	-6618
▁advantage	-6619
▁governess	-6620
▁besonderen	-6621
▁ordentlich	-6622
▁schlechter	-6623
▁approaching	-6624
▁erschrocken	-6625
▁nevertheless	-6626
▁augenscheinlich	-6627
fft	-6628
irr	-6629
sip	-6630
▁Of	-6631
gern	-6632
▁Alt	-6633
▁Jan	-6634
▁Tee	-6635
▁Who	-6636
▁lot	-6637
▁wet	-6638
antas	-6639
boten	-6640
chair	-6641
ctory	-6642
raben	-6643
▁Flam	-6644
▁Schü	-6645
▁deaf	-6646
▁dish	-6647
▁holl	-6648
▁stär	-6649
ierten	-6650
▁Falle	-6651
▁Grace	-6652
▁Thüre	-6653
▁dying	-6654
▁offer	-6655
bleiben	-6656
cherbat	-6657
glichen	-6658
äuschen	-6659
▁Willen	-6660
▁danach	-6661
▁heiter	-6662
▁honest	-6663
▁höchst	-6664
underung	-6665
▁Rouault	-6666
▁Zimmers	-6667
▁perform	-6668
▁regular	-6669
▁stepped	-6670
gestanden	-6671
zustellen	-6672
▁heiligen	-6673
▁Katavasov	-6674
▁Shcherbat	-6675
▁denselben	-6676
▁irgendwel	-6677
▁Leidenschaft	-6678
ES	-6679
cul	-6680
ips	-6681
ode	-6682
pir	-6683
sah	-6684
ton	-6685
▁od	-6686
Will	-6687
awas	-6688
kely	-6689
ship	-6690
vere	-6691
▁rev	-6692
idete	-6693
lease	-6694
rauch	-6695
tence	-6696
ätter	-6697
▁Come	-6698
▁Leib	-6699
▁Ohne	-6700
▁Rech	-6701
▁böse	-6702
▁merk	-6703
▁rise	-6704
▁scre	-6705
▁stro	-6706
▁tanz	-6707
seless	-6708
straße	-6709
▁Küche	-6710
▁Queen	-6711
▁Stolz	-6712
▁alive	-6713
▁awful	-6714
▁doesn	-6715
▁emplo	-6716
▁freue	-6717
▁pract	-6718
▁taste	-6719
▁wants	-6720
▁bewußt	-6721
▁excite	-6722
▁forest	-6723
▁gefaßt	-6724
▁gelegt	-6725
▁junger	-6726
▁proper	-6727
▁verlor	-6728
zeichnet	-6729
▁Frieden	-6730
▁Katawas	-6731
▁attempt	-6732
▁dropped	-6733
▁mehrere	-6734
▁purpose	-6735
▁rapidly	-6736
▁reasons	-6737
▁special	-6738
▁steckte	-6739
▁coachman	-6740
▁schwarze	-6741
▁wiederum	-6742
▁Gespräche	-6743
▁Schicksal	-6744
▁besondere	-6745
▁Sicherheit	-6746
▁Vielleicht	-6747
▁erscheinen	-6748
).	-6749
Fr	-6750
Le	-6751
cur	-6752
lam	-6753
lli	-6754
nes	-6755
onc	-6756
opp	-6757
äub	-6758
afja	-6759
stre	-6760
wurf	-6761
▁Sen	-6762
▁rub	-6763
antic	-6764
ashed	-6765
cript	-6766
house	-6767
utely	-6768
▁Denk	-6769
▁Gemü	-6770
▁Port	-6771
▁loft	-6772
▁song	-6773
▁summ	-6774
anders	-6775
endent	-6776
upiter	-6777
ührung	-6778
▁aband	-6779
▁fancy	-6780
▁fühle	-6781
▁noble	-6782
▁pause	-6783
▁shoes	-6784
▁überw	-6785
blicken	-6786
uttered	-6787
▁Galgen	-6788
▁Hannah	-6789
▁Haufen	-6790
▁Provin	-6791
▁Schwei	-6792
▁Stille	-6793
▁Wangen	-6794
▁gelang	-6795
atürlich	-6796
indungen	-6797
▁Bettler	-6798
▁streets	-6799
▁anfangen	-6800
▁occurred	-6801
▁embarrass	-6802
▁Frankreich	-6803
▁motionless	-6804
▁recognized	-6805
▁Erscheinung	-6806
▁explanation	-6807
▁Nevertheless	-6808
▁Schtscherbazk	-6809
▁involuntarily	-6810
!--	-6811
dre	-6812
vet	-6813
▁Ah	-6814
▁Dr	-6815
▁Ta	-6816
This	-6817
back	-6818
iete	-6819
ours	-6820
ragt	-6821
riet	-6822
üsse	-6823
ützt	-6824
▁Fin	-6825
▁Mat	-6826
▁Sil	-6827
▁Two	-6828
▁dry	-6829
▁ren	-6830
▁zun	-6831
osity	-6832
▁Aufg	-6833
▁Bald	-6834
▁Fahr	-6835
▁Seuf	-6836
▁Ster	-6837
▁desk	-6838
▁grie	-6839
▁hohe	-6840
▁kill	-6841
▁letz	-6842
▁seek	-6843
▁smoo	-6844
bereit	-6845
▁Guill	-6846
▁Katze	-6847
▁Salon	-6848
▁Todes	-6849
▁arbei	-6850
▁clock	-6851
▁hoffe	-6852
▁resem	-6853
▁yours	-6854
▁Agafja	-6855
▁Kammer	-6856
▁beleid	-6857
▁dining	-6858
▁lauter	-6859
▁resist	-6860
▁supper	-6861
▁Fingern	-6862
▁crossed	-6863
▁ordered	-6864
▁ruhigen	-6865
▁sisters	-6866
▁überras	-6867
▁Beschäft	-6868
▁Cardinal	-6869
▁außerdem	-6870
▁brauchen	-6871
▁carrying	-6872
▁früheren	-6873
▁gleichen	-6874
▁langweil	-6875
▁versucht	-6876
▁Entsetzen	-6877
▁Geschmack	-6878
▁succeeded	-6879
▁Gedächtnis	-6880
▁tenderness	-6881
ny	-6882
ère	-6883
ened	-6884
eral	-6885
eter	-6886
inue	-6887
laub	-6888
unch	-6889
ühle	-6890
▁asc	-6891
▁hes	-6892
▁hig	-6893
▁mur	-6894
arben	-6895
asped	-6896
board	-6897
cting	-6898
illef	-6899
ishop	-6900
punkt	-6901
▁Acht	-6902
▁Kinn	-6903
▁coll	-6904
▁hang	-6905
▁maid	-6906
▁plat	-6907
▁stat	-6908
▁ways	-6909
▁...«,	-6910
▁Emmas	-6911
▁Kreis	-6912
▁teach	-6913
barkeit	-6914
▁Kleine	-6915
▁custom	-6916
▁disapp	-6917
▁gewohn	-6918
▁nearer	-6919
▁tongue	-6920
▁verurs	-6921
▁Freuden	-6922
▁Gebäude	-6923
▁Jacques	-6924
▁Spiegel	-6925
▁candles	-6926
▁gelesen	-6927
▁visible	-6928
▁Arbeiter	-6929
▁Vermögen	-6930
▁begannen	-6931
▁verliebt	-6932
▁zuweilen	-6933
▁generally	-6934
▁perceived	-6935
▁versuchen	-6936
▁addressing	-6937
▁angenommen	-6938
▁discovered	-6939
▁unaufhörlich	-6940
Ch	-6941
Are	-6942
Auf	-6943
Gew	-6944
rer	-6945
aume	-6946
aust	-6947
aßte	-6948
eins	-6949
fact	-6950
imal	-6951
race	-6952
warm	-6953
▁Dem	-6954
▁Wal	-6955
▁Yet	-6956
▁deg	-6957
▁doc	-6958
▁gep	-6959
fried	-6960
ätzen	-6961
▁Entz	-6962
▁Gute	-6963
▁Lord	-6964
▁Stro	-6965
▁blow	-6966
▁corn	-6967
▁erle	-6968
▁gaze	-6969
▁getr	-6970
▁größ	-6971
▁wear	-6972
ashvin	-6973
erable	-6974
grunde	-6975
immten	-6976
▁Aller	-6977
▁Jacob	-6978
▁March	-6979
▁Volks	-6980
▁false	-6981
▁immen	-6982
▁merry	-6983
▁reach	-6984
▁shock	-6985
▁waist	-6986
▁withd	-6987
▁zuvor	-6988
wechsel	-6989
zugehen	-6990
▁Erfolg	-6991
▁Häuser	-6992
▁Papier	-6993
▁Sobald	-6994
▁berühm	-6995
▁gesund	-6996
▁lustig	-6997
▁marble	-6998
▁sighed	-6999
▁ziehen	-7000
▁Antlitz	-7001
▁Italian	-7002
▁bemühte	-7003
▁burning	-7004
▁dritten	-7005
▁melanch	-7006
▁provost	-7007
▁seufzte	-7008
▁showing	-7009
▁powerful	-7010
▁produced	-7011
▁soldiers	-7012
▁Krankheit	-7013
▁begreifen	-7014
▁cathedral	-7015
▁geschickt	-7016
▁gleichsam	-7017
▁satisfied	-7018
▁unangenehm	-7019
▁Beziehungen	-7020
▁acquaintance	-7021
",	-7022
my	-7023
gab	-7024
hed	-7025
ißt	-7026
ket	-7027
kur	-7028
met	-7029
pfl	-7030
vis	-7031
zut	-7032
ämt	-7033
Herr	-7034
alte	-7035
elig	-7036
esch	-7037
ials	-7038
ilar	-7039
nder	-7040
stem	-7041
wind	-7042
ällt	-7043
▁Com	-7044
▁Fab	-7045
▁Fig	-7046
▁fla	-7047
▁kna	-7048
▁tau	-7049
abond	-7050
euten	-7051
gerin	-7052
grund	-7053
ionen	-7054
iture	-7055
kleid	-7056
mächt	-7057
ohlen	-7058
stuhl	-7059
▁Beim	-7060
▁Züge	-7061
▁chap	-7062
▁dien	-7063
▁dism	-7064
▁earn	-7065
▁hart	-7066
▁mead	-7067
▁mood	-7068
▁obst	-7069
▁pure	-7070
▁race	-7071
▁rang	-7072
▁rate	-7073
▁vain	-7074
▁wach	-7075
▁wick	-7076
anting	-7077
itated	-7078
sinnig	-7079
▁Bäume	-7080
▁Samsa	-7081
▁Schon	-7082
▁Stief	-7083
▁brief	-7084
▁deser	-7085
▁gehor	-7086
▁maint	-7087
▁miser	-7088
▁verab	-7089
▁veran	-7090
▁wicht	-7091
brachte	-7092
gemacht	-7093
▁Darauf	-7094
▁Gattin	-7095
▁Gefahr	-7096
▁Tasche	-7097
▁convin	-7098
▁crying	-7099
▁defend	-7100
▁fright	-7101
▁lebend	-7102
▁paused	-7103
▁selber	-7104
getreten	-7105
zukommen	-7106
▁Anschau	-7107
▁Bruders	-7108
▁curious	-7109
▁quarter	-7110
▁schöner	-7111
▁heiraten	-7112
▁recalled	-7113
▁singular	-7114
▁trembled	-7115
▁vergnügt	-7116
ischtschew	-7117
▁Gesichter	-7118
▁Nachricht	-7119
▁addressed	-7120
▁hurriedly	-7121
▁recollect	-7122
▁sonderbar	-7123
geschlossen	-7124
▁understanding	-7125
ING	-7126
aya	-7127
ulf	-7128
äck	-7129
este	-7130
fluß	-7131
▁Erd	-7132
▁Gre	-7133
▁Mir	-7134
▁laß	-7135
▁tap	-7136
Gewiß	-7137
chief	-7138
esses	-7139
immen	-7140
known	-7141
meich	-7142
ounds	-7143
samen	-7144
unkte	-7145
ündet	-7146
▁Cour	-7147
▁Ehre	-7148
▁Gefä	-7149
▁Halb	-7150
▁Papa	-7151
▁edge	-7152
▁hält	-7153
▁magn	-7154
▁rare	-7155
▁shel	-7156
endete	-7157
fellos	-7158
gliche	-7159
ritten	-7160
wenden	-7161
▁Rubel	-7162
▁Witwe	-7163
▁Zähne	-7164
▁boots	-7165
▁freud	-7166
▁persu	-7167
▁smoke	-7168
▁Mantel	-7169
▁Montag	-7170
▁Rechts	-7171
▁Sunday	-7172
▁coffee	-7173
▁condem	-7174
▁geriet	-7175
▁jumped	-7176
▁quarre	-7177
▁tiefen	-7178
▁verein	-7179
▁wishes	-7180
▁Beamten	-7181
▁Galerie	-7182
▁nachher	-7183
▁gänzlich	-7184
▁anzusehen	-7185
▁explained	-7186
▁verlieren	-7187
▁Wohnzimmer	-7188
▁Mikhaylovna	-7189
▁beobachtete	-7190
▁interesting	-7191
▁verheiratet	-7192
▁particularly	-7193
▁circumstances	-7194
Re	-7195
hö	-7196
umb	-7197
umn	-7198
ölf	-7199
üte	-7200
abei	-7201
chev	-7202
enig	-7203
fect	-7204
omin	-7205
▁add	-7206
▁erb	-7207
▁sug	-7208
Jetzt	-7209
teuer	-7210
undzw	-7211
usted	-7212
▁Bene	-7213
▁Haup	-7214
▁Hung	-7215
▁Mahl	-7216
▁Raum	-7217
▁Saal	-7218
▁Vern	-7219
▁clim	-7220
▁dust	-7221
▁hers	-7222
▁plan	-7223
▁prec	-7224
▁pron	-7225
▁sinc	-7226
▁unex	-7227
bility	-7228
worfen	-7229
zessin	-7230
ückten	-7231
▁Bisch	-7232
▁Jahrh	-7233
▁Löwen	-7234
▁birds	-7235
▁devel	-7236
▁drove	-7237
▁etern	-7238
▁fully	-7239
▁liebt	-7240
▁space	-7241
▁verme	-7242
▁übert	-7243
richten	-7244
▁Messer	-7245
▁Rennen	-7246
▁Seelen	-7247
▁abrupt	-7248
▁action	-7249
▁daraus	-7250
▁escape	-7251
▁extrem	-7252
▁findet	-7253
▁gefähr	-7254
▁likely	-7255
▁places	-7256
▁Jupiter	-7257
▁Yashvin	-7258
▁afterno	-7259
▁anybody	-7260
▁century	-7261
▁painted	-7262
▁parents	-7263
▁spielte	-7264
▁Anspruch	-7265
▁aufricht	-7266
▁pressing	-7267
▁profound	-7268
▁vagabond	-7269
▁Bekannten	-7270
▁verzeihen	-7271
▁entschieden	-7272
▁menschlichen	-7273
▁verschiedenen	-7274
üf	-7275
--'	-7276
For	-7277
kla	-7278
uft	-7279
urz	-7280
▁Lo	-7281
▁hy	-7282
icul	-7283
lier	-7284
urns	-7285
▁Did	-7286
▁Kon	-7287
▁obt	-7288
▁som	-7289
Meine	-7290
armor	-7291
gment	-7292
hende	-7293
ifice	-7294
oused	-7295
ousin	-7296
tritt	-7297
▁Even	-7298
▁Feld	-7299
▁Kanz	-7300
▁Kein	-7301
▁Tier	-7302
▁anst	-7303
▁bloß	-7304
▁food	-7305
▁heut	-7306
▁lach	-7307
▁mill	-7308
▁nack	-7309
▁rust	-7310
inging	-7311
lieder	-7312
▁Bogen	-7313
▁Ereig	-7314
▁Hügel	-7315
▁Jasch	-7316
▁Kerze	-7317
▁Punkt	-7318
▁Tiefe	-7319
▁cases	-7320
▁event	-7321
▁grief	-7322
▁griff	-7323
▁marsh	-7324
▁popul	-7325
▁wollt	-7326
schrift	-7327
▁Agatha	-7328
▁Oliver	-7329
▁Schiff	-7330
▁Urteil	-7331
▁accept	-7332
▁aufgeh	-7333
▁auszus	-7334
▁bleibt	-7335
▁lernen	-7336
▁orders	-7337
▁played	-7338
▁Glocken	-7339
▁Teppich	-7340
▁befried	-7341
▁geliebt	-7342
▁gewöhnt	-7343
▁mistake	-7344
▁roubles	-7345
▁stürzte	-7346
▁support	-7347
▁telling	-7348
▁Karenina	-7349
▁becoming	-7350
▁building	-7351
▁gathered	-7352
▁glancing	-7353
▁Katawasow	-7354
▁irgendein	-7355
▁neighbour	-7356
▁Gewohnheit	-7357
▁Prinzessin	-7358
▁Verbindung	-7359
▁experience	-7360
▁surrounded	-7361
▁verschwunden	-7362
▁Untersuchungs	-7363
any	-7364
bol	-7365
iti	-7366
örm	-7367
Hier	-7368
ends	-7369
fält	-7370
ilty	-7371
ires	-7372
▁Ehr	-7373
▁Kre	-7374
▁Saw	-7375
▁Zur	-7376
▁bot	-7377
▁rie	-7378
▁ven	-7379
astic	-7380
eitet	-7381
ieber	-7382
▁Betr	-7383
▁Oder	-7384
▁Toms	-7385
▁Tuch	-7386
▁Wahl	-7387
▁flat	-7388
▁link	-7389
▁oper	-7390
▁ruin	-7391
▁veil	-7392
▁übel	-7393
aining	-7394
gefühl	-7395
merzen	-7396
ounted	-7397
uchzen	-7398
▁Kamer	-7399
▁Munde	-7400
▁betra	-7401
▁brill	-7402
▁ignor	-7403
▁rever	-7404
▁stick	-7405
igungen	-7406
▁Bilder	-7407
▁German	-7408
▁Harper	-7409
▁Kerzen	-7410
▁deinem	-7411
▁festen	-7412
▁humili	-7413
▁langer	-7414
▁portra	-7415
▁stayed	-7416
▁stones	-7417
▁thirty	-7418
▁vergaß	-7419
▁whence	-7420
▁Pariser	-7421
▁Theater	-7422
▁blushed	-7423
▁despite	-7424
▁eigenes	-7425
▁erhielt	-7426
▁patient	-7427
▁promise	-7428
▁receive	-7429
▁society	-7430
▁wichtig	-7431
▁Philosop	-7432
▁accustom	-7433
▁actually	-7434
▁dressing	-7435
▁extraord	-7436
▁fürchten	-7437
▁höchsten	-7438
▁unfortun	-7439
▁upstairs	-7440
▁visitors	-7441
▁Erstaunen	-7442
▁Verlangen	-7443
▁doorkeeper	-7444
▁augenblicklich	-7445
▁Golenischtschew	-7446
Im	-7447
app	-7448
gin	-7449
jun	-7450
äme	-7451
öch	-7452
▁14	-7453
▁Di	-7454
▁Hô	-7455
Anna	-7456
anks	-7457
bart	-7458
ernt	-7459
hold	-7460
inke	-7461
itor	-7462
zing	-7463
ürzt	-7464
▁Bib	-7465
▁Poo	-7466
▁aid	-7467
▁mod	-7468
▁nod	-7469
▁obe	-7470
izing	-7471
▁Ball	-7472
▁Hall	-7473
▁beab	-7474
▁beat	-7475
▁beis	-7476
▁blaß	-7477
▁chin	-7478
▁drop	-7479
▁plau	-7480
erecht	-7481
igsten	-7482
ischem	-7483
quette	-7484
undern	-7485
vented	-7486
▁Kampf	-7487
▁Where	-7488
▁badly	-7489
▁conqu	-7490
▁drang	-7491
▁flesh	-7492
▁indic	-7493
▁polit	-7494
faction	-7495
gezogen	-7496
ziehung	-7497
▁Briefe	-7498
▁Glocke	-7499
▁Hinder	-7500
▁Innern	-7501
▁Jugend	-7502
▁advice	-7503
▁assist	-7504
▁deeply	-7505
▁fields	-7506
▁finish	-7507
▁gebild	-7508
▁gefiel	-7509
▁guilty	-7510
▁voller	-7511
▁Ankunft	-7512
▁Entfern	-7513
▁Seufzer	-7514
▁Student	-7515
▁Ursache	-7516
▁attract	-7517
▁bedroom	-7518
▁counten	-7519
▁edifice	-7520
▁footman	-7521
▁journey	-7522
▁klopfte	-7523
▁officer	-7524
▁stillen	-7525
▁arbeiten	-7526
▁schweren	-7527
▁Christian	-7528
▁Geheimnis	-7529
▁getroffen	-7530
▁gezwungen	-7531
▁difficulties	-7532
III	-7533
erc	-7534
not	-7535
pel	-7536
▁ew	-7537
Have	-7538
Very	-7539
abin	-7540
aces	-7541
acke	-7542
aune	-7543
fert	-7544
kaja	-7545
röte	-7546
swer	-7547
they	-7548
uded	-7549
▁Eng	-7550
▁Ruf	-7551
▁käm	-7552
annen	-7553
dring	-7554
endem	-7555
essor	-7556
reckt	-7557
ränkt	-7558
▁Eure	-7559
▁Fuße	-7560
▁Have	-7561
▁Reis	-7562
▁Thus	-7563
▁Trou	-7564
▁Unbe	-7565
▁Zärt	-7566
▁exce	-7567
▁grim	-7568
▁knee	-7569
▁mild	-7570
▁swor	-7571
▁task	-7572
▁thro	-7573
▁wozu	-7574
ickten	-7575
▁Binet	-7576
▁Dabei	-7577
▁Egypt	-7578
▁Eines	-7579
▁Gelie	-7580
▁Marja	-7581
▁Meanw	-7582
▁absor	-7583
▁begrü	-7584
▁capit	-7585
▁drugg	-7586
▁feier	-7587
▁freed	-7588
▁holte	-7589
▁mater	-7590
▁rough	-7591
▁sharp	-7592
ichtern	-7593
ishchev	-7594
tending	-7595
uchtete	-7596
▁Abends	-7597
▁Eifers	-7598
▁Liebes	-7599
▁Majest	-7600
▁Minute	-7601
▁Schnee	-7602
▁durfte	-7603
▁grauen	-7604
▁honour	-7605
▁quiver	-7606
▁courage	-7607
▁gesetzt	-7608
▁history	-7609
▁shaking	-7610
▁someone	-7611
▁verzwei	-7612
▁wechsel	-7613
▁Familien	-7614
▁Geschöpf	-7615
▁Gewissen	-7616
▁druggist	-7617
▁gleicher	-7618
▁innocent	-7619
▁intended	-7620
▁reproach	-7621
undzwanzig	-7622
▁Entzücken	-7623
▁Gelächter	-7624
▁Meanwhile	-7625
▁afternoon	-7626
▁beabsicht	-7627
▁expecting	-7628
▁perfectly	-7629
▁schlimmer	-7630
▁überlegte	-7631
▁Michailowna	-7632
▁Verlegenheit	-7633
hor	-7634
iwa	-7635
mon	-7636
▁eg	-7637
▁hü	-7638
asen	-7639
iant	-7640
omes	-7641
rain	-7642
this	-7643
unes	-7644
utzt	-7645
wöhn	-7646
▁--"	-7647
▁Eis	-7648
▁Eli	-7649
▁Fir	-7650
▁Klo	-7651
▁Pat	-7652
▁bow	-7653
▁cig	-7654
▁grä	-7655
▁hay	-7656
▁isn	-7657
▁mat	-7658
▁que	-7659
▁vel	-7660
▁vig	-7661
ading	-7662
agger	-7663
umpen	-7664
▁Pres	-7665
▁Reiz	-7666
▁Verd	-7667
▁Zorn	-7668
▁amaz	-7669
▁busy	-7670
▁genü	-7671
▁sand	-7672
▁tree	-7673
▁zuzu	-7674
rified	-7675
▁Again	-7676
▁Decke	-7677
▁Knien	-7678
▁Kälte	-7679
▁Sanct	-7680
▁begab	-7681
▁blame	-7682
▁horiz	-7683
▁lofty	-7684
▁polic	-7685
▁prote	-7686
▁revol	-7687
▁shade	-7688
ichtete	-7689
looking	-7690
räglich	-7691
schritt	-7692
streich	-7693
▁Justin	-7694
▁Könige	-7695
▁Lehrer	-7696
▁Stufen	-7697
▁carpet	-7698
▁destro	-7699
▁determ	-7700
▁establ	-7701
▁helped	-7702
▁laufen	-7703
▁lehnte	-7704
▁papers	-7705
▁smooth	-7706
▁thrown	-7707
ausdruck	-7708
handlung	-7709
kerchief	-7710
▁accused	-7711
▁arrival	-7712
▁bestand	-7713
▁deliver	-7714
▁efforts	-7715
▁greater	-7716
▁immense	-7717
▁passage	-7718
▁Jaschwin	-7719
▁Moreover	-7720
▁ertragen	-7721
▁language	-7722
▁suffered	-7723
▁unmittel	-7724
▁Vertrauen	-7725
▁beruhigen	-7726
▁eintreten	-7727
▁furniture	-7728
▁excitement	-7729
▁unexpected	-7730
verständlich	-7731
▁Mademoiselle	-7732
▁leidenschaft	-7733
_,	-7734
dy	-7735
arb	-7736
gef	-7737
rak	-7738
▁tö	-7739
▁–,	-7740
andt	-7741
beug	-7742
buch	-7743
heil	-7744
kers	-7745
ruhe	-7746
wick	-7747
▁Ros	-7748
▁Ruß	-7749
▁bir	-7750
▁mud	-7751
▁riß	-7752
holen	-7753
istes	-7754
reibt	-7755
ummte	-7756
▁Gren	-7757
▁Plan	-7758
▁cher	-7759
▁enem	-7760
▁evil	-7761
▁exch	-7762
▁goes	-7763
▁orig	-7764
▁pier	-7765
eihung	-7766
gelegt	-7767
icious	-7768
macher	-7769
ograph	-7770
uished	-7771
▁Injun	-7772
▁Leibe	-7773
▁Pfört	-7774
▁Poole	-7775
▁aside	-7776
▁breat	-7777
▁brown	-7778
▁colle	-7779
▁exist	-7780
▁hoped	-7781
▁impro	-7782
▁legen	-7783
▁progr	-7784
▁regel	-7785
ordnung	-7786
▁Dmitri	-7787
▁Donner	-7788
▁Kaffee	-7789
▁Kräfte	-7790
▁Miller	-7791
▁Platze	-7792
▁Prokur	-7793
▁Sawyer	-7794
▁Schlag	-7795
▁Wetter	-7796
▁bottle	-7797
▁distra	-7798
▁erregt	-7799
▁gutmüt	-7800
▁hastig	-7801
▁herauf	-7802
▁kurzem	-7803
▁körper	-7804
▁member	-7805
▁neighb	-7806
▁nobody	-7807
▁vermag	-7808
richtung	-7809
▁Himmels	-7810
▁Nothing	-7811
▁begriff	-7812
▁gehörte	-7813
▁refused	-7814
▁solches	-7815
▁spricht	-7816
▁treffen	-7817
▁usually	-7818
▁vernahm	-7819
▁wearing	-7820
entlichen	-7821
▁Benehmen	-7822
▁Türhüter	-7823
▁Veränder	-7824
▁erinnern	-7825
▁erreicht	-7826
▁formerly	-7827
▁irgendwo	-7828
▁Erklärung	-7829
▁examining	-7830
▁gestorben	-7831
▁knowledge	-7832
▁difference	-7833
▁allgemeinen	-7834
▁unterhalten	-7835
▁Erinnerungen	-7836
▁Golenishchev	-7837
▁consciousness	-7838
▁Schwierigkeiten	-7839
AS	-7840
Go	-7841
On	-7842
zü	-7843
isa	-7844
Hall	-7845
anne	-7846
▁	-7847
e	-7848
n	-7849
i	-7850
t	-7851
a	-7852
r	-7853
h	-7854
s	-7855
d	-7856
o	-7857
l	-7858
u	-7859
c	-7860
m	-7861
g	-7862
w	-7863
,	-7864
f	-7865
b	-7866
.	-7867
k	-7868
p	-7869
y	-7870
v	-7871
z	-7872
S	-7873
ü	-7874
I	-7875
A	-7876
'	-7877
ä	-7878
ß	-7879
"	-7880
T	-7881
H	-7882
W	-7883
G	-7884
M	-7885
B	-7886
E	-7887
;	-7888
D	-7889
«	-7890
»	-7891
K	-7892
!	-7893
ö	-7894
-	-7895
j	-7896
L	-7897
F	-7898
?	-7899
P	-7900
N	-7901
R	-7902
V	-7903
x	-7904
:	-7905
Z	-7906
U	-7907
J	-7908
O	-7909
C	-7910
q	-7911
–	-7912
Y	-7913
−	-7914
_	-7915
)	-7916
(	-7917
›	-7918
‹	-7919
Q	-7920
—	-7921
Ü	-7922
X	-7923
~	-7924
1	-7925
é	-7926
Ä	-7927
è	-7928
2	-7929
â	-7930
4	-7931
3	-7932
0	-7933
6	-7934
]	-7935
[	-7936
ç	-7937
8	-7938
*	-7939
5	-7940
7	-7941
ô	-7942
à	-7943
9	-7944
ê	-7945
Ö	-7946
&	-7947
“	-7948
”	-7949
/	-7950
’	-7951
ï	-7952
ë	-7953
ο	-7954
τ	-7955
α	-7956
+	-7957
ν	-7958
œ	-7959
Α	-7960
Ç	-7961
î	-7962
γ	-7963
°	-7964
ί	-7965
ε	-7966
А	-7967
æ	-7968
Γ	-7969
Η	-7970
Κ	-7971
Ν	-7972
έ	-7973
β	-7974
κ	-7975
Г	-7976
Н	-7977
{	-7978
}	-7979
ò	-7980
λ	-7981
μ	-7982
Ἀ	-7983
„	-7984
=	-7985
È	-7986
É	-7987
ñ	-7988
Œ	-7989
δ	-7990
ι	-7991
ς	-7992
ϊ	-7993
ό	-7994
Ὀ	-7995
